{
  "version": "1.0",
  "truncation": null,
  "padding": null,
  "added_tokens": [
    {
      "id": 0,
      "content": "<UNK>",
      "single_word": false,
      "lstrip": false,
      "rstrip": false,
      "normalized": false,
      "special": true
    },
    {
      "id": 1,
      "content": "<PAD>",
      "single_word": false,
      "lstrip": false,
      "rstrip": false,
      "normalized": false,
      "special": true
    },
    {
      "id": 2,
      "content": "<BOS>",
      "single_word": false,
      "lstrip": false,
      "rstrip": false,
      "normalized": false,
      "special": true
    },
    {
      "id": 3,
      "content": "<EOS>",
      "single_word": false,
      "lstrip": false,
      "rstrip": false,
      "normalized": false,
      "special": true
    }
  ],
  "normalizer": {
    "type": "NFKC"
  },
  "pre_tokenizer": {
    "type": "ByteLevel",
    "add_prefix_space": false,
    "trim_offsets": true,
    "use_regex": true
  },
  "post_processor": null,
  "decoder": {
    "type": "ByteLevel",
    "add_prefix_space": true,
    "trim_offsets": true,
    "use_regex": true
  },
  "model": {
    "type": "BPE",
    "dropout": null,
    "unk_token": null,
    "continuing_subword_prefix": null,
    "end_of_word_suffix": null,
    "fuse_unk": false,
    "byte_fallback": false,
    "ignore_merges": false,
    "vocab": {
      "<UNK>": 0,
      "<PAD>": 1,
      "<BOS>": 2,
      "<EOS>": 3,
      "!": 4,
      "\"": 5,
      "#": 6,
      "$": 7,
      "%": 8,
      "&": 9,
      "'": 10,
      "(": 11,
      ")": 12,
      "*": 13,
      "+": 14,
      ",": 15,
      "-": 16,
      ".": 17,
      "/": 18,
      "0": 19,
      "1": 20,
      "2": 21,
      "3": 22,
      "4": 23,
      "5": 24,
      "6": 25,
      "7": 26,
      "8": 27,
      "9": 28,
      ":": 29,
      ";": 30,
      "<": 31,
      "=": 32,
      ">": 33,
      "?": 34,
      "@": 35,
      "A": 36,
      "B": 37,
      "C": 38,
      "D": 39,
      "E": 40,
      "F": 41,
      "G": 42,
      "H": 43,
      "I": 44,
      "J": 45,
      "K": 46,
      "L": 47,
      "M": 48,
      "N": 49,
      "O": 50,
      "P": 51,
      "Q": 52,
      "R": 53,
      "S": 54,
      "T": 55,
      "U": 56,
      "V": 57,
      "W": 58,
      "X": 59,
      "Y": 60,
      "Z": 61,
      "[": 62,
      "\\": 63,
      "]": 64,
      "^": 65,
      "_": 66,
      "`": 67,
      "a": 68,
      "b": 69,
      "c": 70,
      "d": 71,
      "e": 72,
      "f": 73,
      "g": 74,
      "h": 75,
      "i": 76,
      "j": 77,
      "k": 78,
      "l": 79,
      "m": 80,
      "n": 81,
      "o": 82,
      "p": 83,
      "q": 84,
      "r": 85,
      "s": 86,
      "t": 87,
      "u": 88,
      "v": 89,
      "w": 90,
      "x": 91,
      "y": 92,
      "z": 93,
      "{": 94,
      "|": 95,
      "}": 96,
      "~": 97,
      "¡": 98,
      "¢": 99,
      "£": 100,
      "¤": 101,
      "¥": 102,
      "¦": 103,
      "§": 104,
      "¨": 105,
      "©": 106,
      "ª": 107,
      "«": 108,
      "¬": 109,
      "®": 110,
      "¯": 111,
      "°": 112,
      "±": 113,
      "²": 114,
      "³": 115,
      "´": 116,
      "µ": 117,
      "¶": 118,
      "·": 119,
      "¸": 120,
      "¹": 121,
      "º": 122,
      "»": 123,
      "¼": 124,
      "½": 125,
      "¾": 126,
      "¿": 127,
      "Â": 128,
      "Ã": 129,
      "Ä": 130,
      "Å": 131,
      "Æ": 132,
      "Ç": 133,
      "È": 134,
      "É": 135,
      "Ê": 136,
      "Ë": 137,
      "Ì": 138,
      "Í": 139,
      "Î": 140,
      "Ï": 141,
      "Ð": 142,
      "Ñ": 143,
      "Õ": 144,
      "Ö": 145,
      "×": 146,
      "Ø": 147,
      "Ù": 148,
      "Ú": 149,
      "Û": 150,
      "à": 151,
      "á": 152,
      "â": 153,
      "ã": 154,
      "ä": 155,
      "å": 156,
      "æ": 157,
      "ç": 158,
      "è": 159,
      "é": 160,
      "ê": 161,
      "ë": 162,
      "ì": 163,
      "í": 164,
      "ï": 165,
      "ð": 166,
      "ĉ": 167,
      "Ċ": 168,
      "č": 169,
      "Ġ": 170,
      "Ģ": 171,
      "ģ": 172,
      "Ĥ": 173,
      "ĥ": 174,
      "Ħ": 175,
      "ħ": 176,
      "Ĩ": 177,
      "ĩ": 178,
      "Ī": 179,
      "ī": 180,
      "Ĭ": 181,
      "ĭ": 182,
      "Į": 183,
      "į": 184,
      "İ": 185,
      "ı": 186,
      "Ĳ": 187,
      "ĳ": 188,
      "Ĵ": 189,
      "ĵ": 190,
      "Ķ": 191,
      "ķ": 192,
      "ĸ": 193,
      "Ĺ": 194,
      "ĺ": 195,
      "Ļ": 196,
      "ļ": 197,
      "Ľ": 198,
      "ľ": 199,
      "Ŀ": 200,
      "ŀ": 201,
      "Ł": 202,
      "ł": 203,
      "Ń": 204,
      "Ġt": 205,
      "in": 206,
      "he": 207,
      "Ġa": 208,
      "re": 209,
      "on": 210,
      "ĠĠ": 211,
      "Ġs": 212,
      "Ġthe": 213,
      "er": 214,
      "at": 215,
      "Ġc": 216,
      "en": 217,
      "es": 218,
      "ing": 219,
      "Ġw": 220,
      "or": 221,
      "nd": 222,
      "it": 223,
      "ed": 224,
      "is": 225,
      "ou": 226,
      "al": 227,
      "Ġp": 228,
      "Ġf": 229,
      "Ġb": 230,
      "Ġo": 231,
      "ar": 232,
      "an": 233,
      "Ġd": 234,
      "ion": 235,
      "Ġm": 236,
      "Ġand": 237,
      "Ġto": 238,
      "Ġin": 239,
      "le": 240,
      "ic": 241,
      "Ġof": 242,
      "om": 243,
      "as": 244,
      "Ġe": 245,
      "Ġh": 246,
      "ent": 247,
      "ĠĠĠĠ": 248,
      "Ġre": 249,
      "Ġl": 250,
      "Ġth": 251,
      "ct": 252,
      "ro": 253,
      "Ġn": 254,
      "et": 255,
      "il": 256,
      "el": 257,
      "st": 258,
      "ĠT": 259,
      "im": 260,
      "ow": 261,
      "Ġg": 262,
      "id": 263,
      "Ġu": 264,
      "ly": 265,
      "ig": 266,
      "se": 267,
      "Ġis": 268,
      "ra": 269,
      "ol": 270,
      "ation": 271,
      "iv": 272,
      "ot": 273,
      "ce": 274,
      "ĠI": 275,
      "ur": 276,
      "ĠĠĠ": 277,
      "Ġst": 278,
      "ch": 279,
      "ir": 280,
      "ut": 281,
      "Ġfor": 282,
      "her": 283,
      "if": 284,
      "Ġbe": 285,
      "ĠA": 286,
      "ay": 287,
      "ĠS": 288,
      "ver": 289,
      "Ġy": 290,
      "am": 291,
      "ul": 292,
      "Ġcon": 293,
      "Ġon": 294,
      "ad": 295,
      "ith": 296,
      "our": 297,
      "ĠC": 298,
      "ment": 299,
      "Ġex": 300,
      "ate": 301,
      "Ġthat": 302,
      "ers": 303,
      "Ġwith": 304,
      "Ġit": 305,
      "ĠThe": 306,
      "Ġwh": 307,
      "ve": 308,
      "ess": 309,
      "ĊĠĠĠĠ": 310,
      "out": 311,
      "od": 312,
      "Ġhe": 313,
      "pp": 314,
      "Ġas": 315,
      "ag": 316,
      "Ġpro": 317,
      "Ġan": 318,
      "ter": 319,
      "qu": 320,
      "ere": 321,
      "th": 322,
      "Ġal": 323,
      "Ġv": 324,
      "Ġor": 325,
      "ity": 326,
      "ies": 327,
      "ist": 328,
      "Ġcom": 329,
      "Ġde": 330,
      "un": 331,
      "ab": 332,
      "and": 333,
      "ĠM": 334,
      "ore": 335,
      "ure": 336,
      "Ġ\"": 337,
      "ĠH": 338,
      "ĊĠĠĠ": 339,
      "ect": 340,
      "est": 341,
      "Ġwas": 342,
      "rou": 343,
      "igh": 344,
      "us": 345,
      "ĠP": 346,
      "ĠB": 347,
      "ke": 348,
      "ain": 349,
      "ac": 350,
      "ld": 351,
      "um": 352,
      "em": 353,
      "op": 354,
      "Ġne": 355,
      "âĢ": 356,
      "gh": 357,
      "nt": 358,
      "--": 359,
      "ri": 360,
      "ĠE": 361,
      "os": 362,
      "rom": 363,
      "Ġle": 364,
      "Ġ(": 365,
      "ĠD": 366,
      "Ġare": 367,
      "Ġch": 368,
      "ant": 369,
      "Ġse": 370,
      "'s": 371,
      "Ġen": 372,
      "ci": 373,
      "ill": 374,
      "Ġyou": 375,
      "ĠF": 376,
      "pl": 377,
      "Ġsu": 378,
      "Ġr": 379,
      "res": 380,
      "ĠW": 381,
      "ive": 382,
      "ort": 383,
      "ions": 384,
      "Ġthey": 385,
      "Ġnot": 386,
      "ine": 387,
      "art": 388,
      "ight": 389,
      "pt": 390,
      "Ġsom": 391,
      "Ġsh": 392,
      "Ġwe": 393,
      "og": 394,
      "Ġint": 395,
      "Ġby": 396,
      "ĠR": 397,
      "Ġtheir": 398,
      "all": 399,
      "are": 400,
      "Ġus": 401,
      "ue": 402,
      "Ġab": 403,
      "Ġat": 404,
      "end": 405,
      "Ġim": 406,
      "per": 407,
      "Ġha": 408,
      "Ġsp": 409,
      "Ġ1": 410,
      "ust": 411,
      "ical": 412,
      "ud": 413,
      "ĠL": 414,
      "ry": 415,
      "Ġfrom": 416,
      "Ġwhe": 417,
      "iz": 418,
      "ther": 419,
      "ould": 420,
      "Ġk": 421,
      "ard": 422,
      "ĊĠĠĠĠĠĠĠ": 423,
      "ind": 424,
      "ge": 425,
      "Ġ=": 426,
      "Ġpl": 427,
      "king": 428,
      "Ġcont": 429,
      "Ġso": 430,
      "ous": 431,
      "Ġwor": 432,
      "ne": 433,
      "Ġcan": 434,
      "ans": 435,
      "oc": 436,
      "ple": 437,
      "Ġthis": 438,
      "int": 439,
      "ĠG": 440,
      "ide": 441,
      "Ġyour": 442,
      "age": 443,
      "Ġres": 444,
      "Ġad": 445,
      "ell": 446,
      "ations": 447,
      "orm": 448,
      "Ġup": 449,
      "Ġdis": 450,
      "ĠO": 451,
      "ĠN": 452,
      "ong": 453,
      "ated": 454,
      "Ġli": 455,
      "Ġif": 456,
      "ally": 457,
      "ction": 458,
      "one": 459,
      "Ġher": 460,
      "ie": 461,
      "ult": 462,
      "ance": 463,
      "low": 464,
      "Ġabout": 465,
      "rough": 466,
      "very": 467,
      "ice": 468,
      "vel": 469,
      "Ġme": 470,
      "Ġj": 471,
      "ach": 472,
      "Ġsa": 473,
      "ĊĠĠĠĠĠĠĠĠ": 474,
      "ments": 475,
      "ap": 476,
      "ile": 477,
      "ast": 478,
      "ary": 479,
      "able": 480,
      "act": 481,
      "ost": 482,
      "Ġthen": 483,
      "Ġpr": 484,
      "ĠTh": 485,
      "ff": 486,
      "ks": 487,
      "ib": 488,
      "ich": 489,
      "ĠU": 490,
      "ĠJ": 491,
      "ime": 492,
      "Ġapp": 493,
      "cc": 494,
      "Ġhis": 495,
      "ru": 496,
      "The": 497,
      "ep": 498,
      "Ġdo": 499,
      "Ġout": 500,
      "hing": 501,
      "oo": 502,
      "red": 503,
      "Ġun": 504,
      "----": 505,
      "Ġ2": 506,
      "ial": 507,
      "form": 508,
      "Ġsome": 509,
      "ating": 510,
      "ĠIn": 511,
      "Ġinc": 512,
      "du": 513,
      "Ġhave": 514,
      "Ġcl": 515,
      "round": 516,
      "urn": 517,
      "ood": 518,
      "ence": 519,
      "Ġte": 520,
      "ass": 521,
      "ame": 522,
      "Ġbut": 523,
      "Ġtr": 524,
      "``": 525,
      "Ġthem": 526,
      "Ġev": 527,
      "ces": 528,
      "ite": 529,
      "Ġ#": 530,
      "Ġcol": 531,
      "ign": 532,
      "Ġall": 533,
      "ings": 534,
      "Ġra": 535,
      "ase": 536,
      "Ġother": 537,
      "ip": 538,
      "ked": 539,
      "Ġinto": 540,
      "dit": 541,
      "now": 542,
      "ĠIf": 543,
      "Ġar": 544,
      "Ġqu": 545,
      "nder": 546,
      "ear": 547,
      "Ġimp": 548,
      "Ġour": 549,
      "Ġper": 550,
      "Ġma": 551,
      "Ġhow": 552,
      ".\"": 553,
      "Ġwhich": 554,
      "put": 555,
      "Ġshe": 556,
      "xt": 557,
      "fere": 558,
      "ons": 559,
      "com": 560,
      "ĠâĢ": 561,
      "av": 562,
      "ough": 563,
      "Ġwere": 564,
      "ater": 565,
      "ack": 566,
      "Ġman": 567,
      "Ġhad": 568,
      "Ġsc": 569,
      "'t": 570,
      "ress": 571,
      "ia": 572,
      "Ġmore": 573,
      "ec": 574,
      "ely": 575,
      "00": 576,
      "ents": 577,
      "ose": 578,
      "ound": 579,
      "yth": 580,
      "Ġlike": 581,
      "Ġthere": 582,
      "ays": 583,
      "Ġthese": 584,
      "so": 585,
      "Ġdif": 586,
      "Ġtime": 587,
      "ail": 588,
      "Ġcomm": 589,
      "ious": 590,
      "ace": 591,
      "Ġem": 592,
      "ful": 593,
      "Ġpe": 594,
      "ors": 595,
      "Ġsomet": 596,
      "reat": 597,
      "ĠHe": 598,
      "Ġone": 599,
      "ual": 600,
      "Ġwho": 601,
      "ount": 602,
      "Ġsm": 603,
      "ng": 604,
      "ck": 605,
      "arn": 606,
      "Ġunder": 607,
      "ory": 608,
      "Ġmy": 609,
      "Ġits": 610,
      "Ġwhen": 611,
      "Ġ-": 612,
      "Ġ'": 613,
      "au": 614,
      "Ġro": 615,
      "ild": 616,
      "Ġwill": 617,
      "Ġfe": 618,
      "ities": 619,
      "Ġtra": 620,
      "we": 621,
      "ob": 622,
      "Ġexpl": 623,
      "ĠIt": 624,
      "te": 625,
      "ens": 626,
      "Ġbet": 627,
      "ang": 628,
      "(\"": 629,
      "ased": 630,
      "Ġind": 631,
      "Ġag": 632,
      "Ġneed": 633,
      "Ġdec": 634,
      "Ġrel": 635,
      "ef": 636,
      "ond": 637,
      "Ġbl": 638,
      "ved": 639,
      "ython": 640,
      "Ġpre": 641,
      "hed": 642,
      "Ġpart": 643,
      "Ġcould": 644,
      "Ġhand": 645,
      "Ġdiffere": 646,
      "Ġnew": 647,
      "Ġover": 648,
      "ber": 649,
      "ord": 650,
      "Ġhel": 651,
      "ility": 652,
      "Ġcomp": 653,
      "uring": 654,
      "pect": 655,
      "ople": 656,
      "ns": 657,
      "ict": 658,
      "ily": 659,
      "âĢĻ": 660,
      "Ġhas": 661,
      "ak": 662,
      "ire": 663,
      "Ġthrough": 664,
      "Ġfun": 665,
      "cial": 666,
      "Ġval": 667,
      "ove": 668,
      "Ġknow": 669,
      "Ġcons": 670,
      "Ġhelp": 671,
      "ĠCh": 672,
      "ific": 673,
      "ional": 674,
      "itt": 675,
      "les": 676,
      "Ġret": 677,
      "ys": 678,
      "ree": 679,
      "Ġevery": 680,
      "Ġthan": 681,
      "Ġgo": 682,
      "Ġwhat": 683,
      "erm": 684,
      "Ġam": 685,
      "Ġday": 686,
      "Ġprint": 687,
      "ates": 688,
      "olog": 689,
      "fter": 690,
      "Ġpeople": 691,
      "Ġsomething": 692,
      "ise": 693,
      "Ġdes": 694,
      "lect": 695,
      "pe": 696,
      "cy": 697,
      "Ġtw": 698,
      "get": 699,
      "Ġlearn": 700,
      "Ġwould": 701,
      "Ġsy": 702,
      "):": 703,
      "cess": 704,
      "Ġel": 705,
      "ĠThis": 706,
      "estion": 707,
      "Ġdifferent": 708,
      "ram": 709,
      "Ġrem": 710,
      "row": 711,
      "ien": 712,
      "Ġact": 713,
      "ĠThey": 714,
      "Ġacc": 715,
      "ures": 716,
      "Ġsuch": 717,
      "Ġalso": 718,
      "ode": 719,
      "ll": 720,
      "ub": 721,
      "ĠV": 722,
      "Ġdisc": 723,
      "elf": 724,
      "Ġsaid": 725,
      "Ġexper": 726,
      "oss": 727,
      "ics": 728,
      "Ġtrans": 729,
      "Ġstr": 730,
      ").": 731,
      "ata": 732,
      "ĠShe": 733,
      "its": 734,
      "oth": 735,
      "ake": 736,
      "Ġreturn": 737,
      "Ġeach": 738,
      "Ġinter": 739,
      "ĊĠĠĠĠĠĠĠĠĠĠĠ": 740,
      "ĠSt": 741,
      "ving": 742,
      "ĠY": 743,
      "Ġwhile": 744,
      "ish": 745,
      "Ġany": 746,
      "Ġstud": 747,
      "riend": 748,
      "Ġdet": 749,
      "Ġreg": 750,
      "Ġoff": 751,
      "Ġinv": 752,
      "ĠK": 753,
      "ph": 754,
      "rit": 755,
      "alth": 756,
      "irst": 757,
      "Ġcre": 758,
      "led": 759,
      "ome": 760,
      "**": 761,
      "oy": 762,
      "Ġprov": 763,
      "ract": 764,
      "Ġincl": 765,
      "ced": 766,
      "In": 767,
      "Qu": 768,
      "ark": 769,
      "Ġmay": 770,
      "stand": 771,
      "ered": 772,
      "ian": 773,
      "ween": 774,
      "Ġeven": 775,
      "Ġstate": 776,
      "\")": 777,
      "Ġbig": 778,
      "Ġfriend": 779,
      "old": 780,
      "ular": 781,
      "Ġvar": 782,
      "Ġsur": 783,
      "Ġrec": 784,
      "ases": 785,
      "```": 786,
      "Ġfl": 787,
      "Ġgre": 788,
      "ues": 789,
      "wn": 790,
      "Ġbetween": 791,
      "ible": 792,
      "iqu": 793,
      "Ġvis": 794,
      "Ġno": 795,
      "Ġinst": 796,
      "chn": 797,
      "ject": 798,
      "Ġwhere": 799,
      "ts": 800,
      "ward": 801,
      "Ġins": 802,
      "Ġ19": 803,
      "Ġplay": 804,
      "Ġco": 805,
      "Ġeff": 806,
      "--------": 807,
      "ath": 808,
      "ange": 809,
      "gan": 810,
      "ĠĊ": 811,
      "Ġbeen": 812,
      "velop": 813,
      "nce": 814,
      "ness": 815,
      "Ġtwo": 816,
      "ouse": 817,
      "Ġbased": 818,
      "als": 819,
      "Ġpers": 820,
      "Ġuse": 821,
      "fore": 822,
      "Ġfunction": 823,
      "Ġche": 824,
      "ĠâĢĵ": 825,
      "ife": 826,
      "ave": 827,
      "Ġinclud": 828,
      "Ġcommun": 829,
      "Ġtoo": 830,
      "Ġyear": 831,
      "ĠAs": 832,
      "Ġac": 833,
      "Ġgen": 834,
      "Ġinput": 835,
      "ative": 836,
      "rib": 837,
      "Ġloo": 838,
      "Ġcall": 839,
      "Ġupon": 840,
      "own": 841,
      "ĠAn": 842,
      "Ġent": 843,
      "ited": 844,
      "ower": 845,
      "Question": 846,
      "ric": 847,
      "ature": 848,
      "Ġjust": 849,
      "Ġappro": 850,
      "tain": 851,
      "Ġsee": 852,
      "Ġrep": 853,
      "ized": 854,
      "Ġbec": 855,
      "arm": 856,
      "Ġcondit": 857,
      "ared": 858,
      "Ġimport": 859,
      "Ġcur": 860,
      "vent": 861,
      "),": 862,
      "Ġaround": 863,
      "ade": 864,
      "ĠUn": 865,
      "hes": 866,
      "Ġhim": 867,
      "Ġback": 868,
      "Ġser": 869,
      "Ġpo": 870,
      "iss": 871,
      "rel": 872,
      "ause": 873,
      "ft": 874,
      "ied": 875,
      "Ġhigh": 876,
      "ever": 877,
      "Ġfirst": 878,
      "Ġob": 879,
      "rol": 880,
      "Ġmod": 881,
      "Ġph": 882,
      "pr": 883,
      "ick": 884,
      "Ġwant": 885,
      "cept": 886,
      "Ġwork": 887,
      "Ġduring": 888,
      "stem": 889,
      "ives": 890,
      "Ġcat": 891,
      "Ġhapp": 892,
      "Ġbu": 893,
      "other": 894,
      "imes": 895,
      "iet": 896,
      "eg": 897,
      "Ġsim": 898,
      "ided": 899,
      "Ġatt": 900,
      "Ġtechn": 901,
      "ism": 902,
      "Ġfound": 903,
      "aking": 904,
      "ĠPro": 905,
      "hen": 906,
      "Ġ3": 907,
      "ĊĊĠĠĠ": 908,
      "Ġafter": 909,
      "Ġform": 910,
      "Ġmet": 911,
      "Ġwithin": 912,
      "ines": 913,
      "Ġthings": 914,
      "Ġke": 915,
      "Ġcle": 916,
      "Ġunderstand": 917,
      "Ġstart": 918,
      "Ġdid": 919,
      "ves": 920,
      "Ġsk": 921,
      "Ġworld": 922,
      "..": 923,
      "Ġmany": 924,
      "ting": 925,
      "âĢĿ": 926,
      "ices": 927,
      "pport": 928,
      "Ġget": 929,
      "ble": 930,
      "ational": 931,
      "Ġthose": 932,
      "ittle": 933,
      "Ġbefore": 934,
      "Ġonly": 935,
      "Ġreal": 936,
      "ĊĠĠĠĠĠĠĠĠĠĠĠĠ": 937,
      "lic": 938,
      "Ġyoung": 939,
      "Ġexp": 940,
      "erg": 941,
      "ential": 942,
      "Ġthough": 943,
      "Ġsign": 944,
      "Th": 945,
      "Ġdoes": 946,
      "ather": 947,
      "Ġsw": 948,
      "Ġprodu": 949,
      "Ġrequ": 950,
      "Ġnum": 951,
      "ample": 952,
      "Ġhealth": 953,
      "ps": 954,
      "gg": 955,
      "Ġhum": 956,
      "my": 957,
      "Ġpat": 958,
      "ning": 959,
      "ros": 960,
      "Ġboth": 961,
      "Ġwell": 962,
      "Ġbal": 963,
      "Ġkind": 964,
      "Ġset": 965,
      "ision": 966,
      "Ġsomeone": 967,
      "Ġsqu": 968,
      "Ġext": 969,
      "Ġfind": 970,
      "Ġspe": 971,
      "Ġresp": 972,
      "Ġvery": 973,
      "ling": 974,
      "ural": 975,
      "Ġagain": 976,
      "Ġ`": 977,
      "Ġprog": 978,
      "ipp": 979,
      ",\"": 980,
      "hip": 981,
      "ĠWe": 982,
      "Ġspec": 983,
      "cul": 984,
      "ering": 985,
      "Ġbel": 986,
      "Ġlevel": 987,
      "Ġdevelop": 988,
      "ize": 989,
      "uch": 990,
      "Ġcontrol": 991,
      "me": 992,
      "Ġcare": 993,
      "ists": 994,
      "resent": 995,
      "Ġmost": 996,
      "Ġdata": 997,
      "Ġpol": 998,
      "ruct": 999,
      "Ġmake": 1000,
      "ĠTr": 1001,
      "bit": 1002,
      "formation": 1003,
      "ability": 1004,
      "ident": 1005,
      "Ġdog": 1006,
      "Ġwater": 1007,
      "Ġmed": 1008,
      "ool": 1009,
      "Ġlead": 1010,
      "cl": 1011,
      "ew": 1012,
      "Ġ==": 1013,
      "Ġelse": 1014,
      "Ġloc": 1015,
      "mer": 1016,
      "arch": 1017,
      "fl": 1018,
      "Ġart": 1019,
      "Ġgra": 1020,
      "Ġflow": 1021,
      "Ġlittle": 1022,
      "por": 1023,
      "Ġbr": 1024,
      "ĠWh": 1025,
      "ds": 1026,
      "Ġused": 1027,
      "ĠBut": 1028,
      "Ġhist": 1029,
      "Ġmom": 1030,
      "ection": 1031,
      "eng": 1032,
      "Ġtoget": 1033,
      "Ġtogether": 1034,
      "Ġcomple": 1035,
      "Ġuser": 1036,
      "wer": 1037,
      "kes": 1038,
      "ĠâĢľ": 1039,
      "Ġgreen": 1040,
      "Ġsystem": 1041,
      "Ġusing": 1042,
      "Ġdown": 1043,
      "Ġfol": 1044,
      "Ġfam": 1045,
      "ution": 1046,
      "ology": 1047,
      "yg": 1048,
      "Ġred": 1049,
      "Ġmade": 1050,
      "uc": 1051,
      "Ġty": 1052,
      "vers": 1053,
      "Ġeag": 1054,
      "Ġlife": 1055,
      "Ġresult": 1056,
      "Ġprocess": 1057,
      "Ġown": 1058,
      "Ġfriends": 1059,
      "ient": 1060,
      "Ġpass": 1061,
      "Ġadd": 1062,
      "Ġmight": 1063,
      "ink": 1064,
      "cing": 1065,
      "Ġway": 1066,
      "Ġsub": 1067,
      "ories": 1068,
      "Ġcalled": 1069,
      "Ġcontin": 1070,
      "Ġlo": 1071,
      "Ġdef": 1072,
      "aw": 1073,
      "con": 1074,
      "ĠHow": 1075,
      "ty": 1076,
      "Ġcount": 1077,
      "cer": 1078,
      "ars": 1079,
      "ĠSo": 1080,
      "ĠĊĠĠĠ": 1081,
      "Ġperson": 1082,
      "Ġlong": 1083,
      "ired": 1084,
      "Ġimple": 1085,
      "ivid": 1086,
      "ically": 1087,
      "self": 1088,
      "irrel": 1089,
      "Ġdist": 1090,
      "ĊĠĠĠĠĊĠĠĠ": 1091,
      "\",": 1092,
      "Ġwhether": 1093,
      "ived": 1094,
      "tern": 1095,
      "Ġfur": 1096,
      "ĠEx": 1097,
      "Ġaw": 1098,
      "Ġca": 1099,
      "ins": 1100,
      "Ġread": 1101,
      "ience": 1102,
      "\"\"": 1103,
      "alcul": 1104,
      "Ġpract": 1105,
      "Ġsquirrel": 1106,
      "ross": 1107,
      "Ġright": 1108,
      "iger": 1109,
      "Con": 1110,
      "ead": 1111,
      "Ġmin": 1112,
      "Ġeng": 1113,
      "Ġsec": 1114,
      "ĠAnd": 1115,
      "ah": 1116,
      "Ġrab": 1117,
      "Ġfeel": 1118,
      "ren": 1119,
      "Ġyears": 1120,
      "come": 1121,
      "Ġbeh": 1122,
      "uss": 1123,
      "ten": 1124,
      "Ġless": 1125,
      "ition": 1126,
      "Ġmouse": 1127,
      "ages": 1128,
      "ax": 1129,
      "Ġref": 1130,
      "Ġbeing": 1131,
      "Ġfollow": 1132,
      "Ġblue": 1133,
      "ats": 1134,
      "ĠCon": 1135,
      "Ġsol": 1136,
      "ov": 1137,
      "Ġend": 1138,
      "Ġmuch": 1139,
      "Ġed": 1140,
      "Ġposs": 1141,
      "Ġfin": 1142,
      "Ġround": 1143,
      "Ġop": 1144,
      "Ġass": 1145,
      "Ġrabbit": 1146,
      "Ġvarious": 1147,
      "ĠFor": 1148,
      "Ġlet": 1149,
      "Ġcold": 1150,
      "Ġgu": 1151,
      "Ġpartic": 1152,
      "Ġrese": 1153,
      "Ġmat": 1154,
      "ygien": 1155,
      "Ġsmall": 1156,
      "line": 1157,
      "iver": 1158,
      "ined": 1159,
      "fess": 1160,
      "Ġ20": 1161,
      "air": 1162,
      "Ġchall": 1163,
      "Ġshow": 1164,
      "Ġexplain": 1165,
      "Ġgl": 1166,
      "Ġchild": 1167,
      "Ġsn": 1168,
      "read": 1169,
      "itch": 1170,
      "ex": 1171,
      "Ġcult": 1172,
      "ety": 1173,
      "aring": 1174,
      "rent": 1175,
      "Ġgrow": 1176,
      "arl": 1177,
      "Ġmain": 1178,
      "ygiene": 1179,
      "ants": 1180,
      "ique": 1181,
      "ually": 1182,
      "Ġprogram": 1183,
      "ining": 1184,
      "Ġbecause": 1185,
      "Ġtiger": 1186,
      "Ġpower": 1187,
      "Ġdel": 1188,
      "oring": 1189,
      "chool": 1190,
      "Ġinformation": 1191,
      "Ġcor": 1192,
      "ividual": 1193,
      "Ġrough": 1194,
      "Ġprom": 1195,
      "Ġ4": 1196,
      "ĠBy": 1197,
      "ook": 1198,
      "text": 1199,
      "ider": 1200,
      "__": 1201,
      "ĠAl": 1202,
      "Ġ[": 1203,
      "over": 1204,
      "iving": 1205,
      "Ġneeds": 1206,
      "ivers": 1207,
      "Ġbear": 1208,
      "ways": 1209,
      "As": 1210,
      "Ġmem": 1211,
      "?\"": 1212,
      "Ġcow": 1213,
      "erest": 1214,
      "iron": 1215,
      "Ġadv": 1216,
      "reme": 1217,
      "Ġconn": 1218,
      "Ġdep": 1219,
      "Ġnice": 1220,
      "br": 1221,
      "Ġdeterm": 1222,
      "Ġexc": 1223,
      "Ġsci": 1224,
      "Ġindividual": 1225,
      "Ġens": 1226,
      "!\"": 1227,
      "Ġbald": 1228,
      "Ġeagle": 1229,
      "Ġanother": 1230,
      "ination": 1231,
      "Ġturn": 1232,
      "Ġgener": 1233,
      "Ġcar": 1234,
      "()": 1235,
      "Ġtake": 1236,
      "ately": 1237,
      "Ġfact": 1238,
      "Ġallow": 1239,
      "Ġnam": 1240,
      "day": 1241,
      "Ġ200": 1242,
      "Ġvalue": 1243,
      "Ġlist": 1244,
      "Ġstatements": 1245,
      "Ġpot": 1246,
      "port": 1247,
      "sc": 1248,
      "Ġgrou": 1249,
      "ier": 1250,
      "ĠOne": 1251,
      "ron": 1252,
      "less": 1253,
      "wards": 1254,
      "Ġcode": 1255,
      "val": 1256,
      "Ġlion": 1257,
      "ĠPython": 1258,
      "arly": 1259,
      "blem": 1260,
      "Ġgood": 1261,
      "ven": 1262,
      "Ġcent": 1263,
      "Ġ5": 1264,
      "Ġeffect": 1265,
      "Ġhandle": 1266,
      "Ġsaf": 1267,
      "else": 1268,
      "Ġhome": 1269,
      "rin": 1270,
      "viron": 1271,
      "Ġnow": 1272,
      "Here": 1273,
      "iew": 1274,
      "Ġmon": 1275,
      "elt": 1276,
      "def": 1277,
      "Ġothers": 1278,
      "ĠCom": 1279,
      "ork": 1280,
      "Ġshould": 1281,
      "Ġseem": 1282,
      "meric": 1283,
      "Ġwithout": 1284,
      "oh": 1285,
      "iven": 1286,
      "Ġequ": 1287,
      "python": 1288,
      "ently": 1289,
      "case": 1290,
      "Ġincre": 1291,
      "ivity": 1292,
      "']": 1293,
      "Ġaut": 1294,
      "to": 1295,
      "Ġinterest": 1296,
      "Ġdesign": 1297,
      "ality": 1298,
      "ened": 1299,
      "ale": 1300,
      "Ġav": 1301,
      "Ġswitch": 1302,
      "Ġconditions": 1303,
      "iel": 1304,
      "ĠAr": 1305,
      "ization": 1306,
      "Ġoften": 1307,
      "med": 1308,
      "Ġperform": 1309,
      "Ġimportant": 1310,
      "Ġ0": 1311,
      "Ġmaking": 1312,
      "Ġlearning": 1313,
      "ror": 1314,
      "ively": 1315,
      "Ġamong": 1316,
      "Ġalong": 1317,
      "ippet": 1318,
      "Ġsnippet": 1319,
      "Ġbetter": 1320,
      "Ġprot": 1321,
      "Ġinvol": 1322,
      "ript": 1323,
      "Ġorgan": 1324,
      "Ġplan": 1325,
      "Ġalways": 1326,
      "Ġsaw": 1327,
      "Ġdecided": 1328,
      "ĠThese": 1329,
      "ublic": 1330,
      "Ġfood": 1331,
      "Ġtry": 1332,
      "ateg": 1333,
      "Ġasked": 1334,
      "One": 1335,
      "side": 1336,
      "ets": 1337,
      "ccess": 1338,
      "aut": 1339,
      "Ġproblem": 1340,
      "Ġide": 1341,
      "alys": 1342,
      "ĠYou": 1343,
      "erv": 1344,
      "\":": 1345,
      "iness": 1346,
      "ody": 1347,
      "Ġbo": 1348,
      "nswer": 1349,
      "Ġstarted": 1350,
      "ĠChe": 1351,
      "ending": 1352,
      "Ġenc": 1353,
      "Ġris": 1354,
      "Ġsignific": 1355,
      "Wh": 1356,
      "Answer": 1357,
      "ĠAd": 1358,
      "ued": 1359,
      "Code": 1360,
      "Ġrespons": 1361,
      "ĠAmeric": 1362,
      "Ġchar": 1363,
      "app": 1364,
      "up": 1365,
      "Ġrun": 1366,
      "##": 1367,
      "âĢĶ": 1368,
      "Context": 1369,
      "Ġpython": 1370,
      "Ġold": 1371,
      "ext": 1372,
      "io": 1373,
      "Ġbuild": 1374,
      "Ġsupport": 1375,
      "ĠHowever": 1376,
      "ute": 1377,
      "Ġunderstanding": 1378,
      "pare": 1379,
      "Ġclass": 1380,
      "Ġdue": 1381,
      "Ġschool": 1382,
      "':": 1383,
      "ner": 1384,
      "Ġey": 1385,
      "Ġlow": 1386,
      "ix": 1387,
      "comm": 1388,
      "ince": 1389,
      "izing": 1390,
      "Ġpoint": 1391,
      "Ġiss": 1392,
      "Ġnamed": 1393,
      "ital": 1394,
      "Ġ\"\"\"": 1395,
      "acy": 1396,
      "Ġlar": 1397,
      "Ġhuman": 1398,
      "alysis": 1399,
      "Ġtest": 1400,
      "Ġ{": 1401,
      "be": 1402,
      "vironment": 1403,
      "Ġstill": 1404,
      "ĠAll": 1405,
      "Ġthought": 1406,
      "Ġfac": 1407,
      "Ġland": 1408,
      "ished": 1409,
      "Ġimplement": 1410,
      "den": 1411,
      "ĊĊ": 1412,
      "Ġthree": 1413,
      "['": 1414,
      "Ġcheck": 1415,
      "Ġeveryone": 1416,
      "Ġpop": 1417,
      "ember": 1418,
      "els": 1419,
      "bers": 1420,
      "ources": 1421,
      "Ġdem": 1422,
      "ĠĠĠĠĠĠĠĠ": 1423,
      "ĠIm": 1424,
      "Ġtem": 1425,
      "aning": 1426,
      "Ġexplore": 1427,
      "Ġspecial": 1428,
      "Ġchalleng": 1429,
      "Ġtri": 1430,
      "new": 1431,
      "Ġunt": 1432,
      "Ġpos": 1433,
      "Ġexample": 1434,
      "und": 1435,
      "Ġmess": 1436,
      "Ġdecision": 1437,
      "str": 1438,
      "rodu": 1439,
      "Ġstre": 1440,
      "any": 1441,
      "Ġcreate": 1442,
      "Ġbre": 1443,
      "cent": 1444,
      "Ġwhite": 1445,
      "))": 1446,
      "orpor": 1447,
      "Ġmus": 1448,
      "ances": 1449,
      "Ġconst": 1450,
      "Ġwanted": 1451,
      "Ġcomments": 1452,
      "ergy": 1453,
      "ibility": 1454,
      "Ġdiscuss": 1455,
      "Ġacross": 1456,
      "ĠTo": 1457,
      "ights": 1458,
      "Ġopt": 1459,
      "hod": 1460,
      "Ġmar": 1461,
      "ash": 1462,
      "az": 1463,
      "oms": 1464,
      "dition": 1465,
      "irl": 1466,
      "Ġimpro": 1467,
      "Ġconf": 1468,
      "ĠLily": 1469,
      "Ġaway": 1470,
      "fessional": 1471,
      "Ġmo": 1472,
      "Ġfelt": 1473,
      "ted": 1474,
      "Ġtowards": 1475,
      "ify": 1476,
      "Ġconnect": 1477,
      "Ġmust": 1478,
      "Ġsym": 1479,
      "Ġexperien": 1480,
      "Ġsever": 1481,
      "Ġchang": 1482,
      "Ġbelie": 1483,
      "Ġbest": 1484,
      "ny": 1485,
      "ĠEng": 1486,
      "Ġcontain": 1487,
      "ditional": 1488,
      "augh": 1489,
      "the": 1490,
      "ental": 1491,
      "ides": 1492,
      "irect": 1493,
      "ĠHar": 1494,
      "Ġcame": 1495,
      "Ġagainst": 1496,
      "Ġnumber": 1497,
      "Ġchange": 1498,
      "alse": 1499,
      "iting": 1500,
      "Ġpossible": 1501,
      "Ġtak": 1502,
      "ense": 1503,
      "Ġstudy": 1504,
      "orts": 1505,
      "Ġdon": 1506,
      "pected": 1507,
      "nter": 1508,
      "Ġresearch": 1509,
      "Ġaff": 1510,
      "Ġstand": 1511,
      "Ġhere": 1512,
      "ern": 1513,
      "Ġsame": 1514,
      "ĠTim": 1515,
      "Ġprovide": 1516,
      "ocus": 1517,
      "Ġident": 1518,
      "Ġtre": 1519,
      "Ġcrit": 1520,
      "Ġcour": 1521,
      "Ġemb": 1522,
      "ock": 1523,
      "Ġhappy": 1524,
      "ention": 1525,
      "Ġkeep": 1526,
      "',": 1527,
      "abor": 1528,
      "Ġsuccess": 1529,
      "Ġbir": 1530,
      "Ġstep": 1531,
      "Ġ6": 1532,
      "Ġhistory": 1533,
      "Ġcurrent": 1534,
      "Ġcreat": 1535,
      "Ġess": 1536,
      "ĠWith": 1537,
      "Ġremain": 1538,
      "omen": 1539,
      "This": 1540,
      "outh": 1541,
      "Ġuntil": 1542,
      "commend": 1543,
      "----------------": 1544,
      "Ġwent": 1545,
      "Ġcomplex": 1546,
      "by": 1547,
      "Ġpar": 1548,
      "itive": 1549,
      "Ġpres": 1550,
      "ĠRe": 1551,
      "ull": 1552,
      "Ġfamily": 1553,
      "Ġeduc": 1554,
      "Ġgirl": 1555,
      "Ġlocal": 1556,
      "Ġincluding": 1557,
      "ills": 1558,
      "Ġproduct": 1559,
      "Ġproper": 1560,
      "Ġsocial": 1561,
      "Ġredu": 1562,
      ".,": 1563,
      "Ġ18": 1564,
      "Ġstudents": 1565,
      "Ġjour": 1566,
      "ertain": 1567,
      "Ġele": 1568,
      "Ġquiet": 1569,
      "Ġunique": 1570,
      "Ġinf": 1571,
      "ples": 1572,
      "ee": 1573,
      "ney": 1574,
      "Ġtreat": 1575,
      "Ġopen": 1576,
      "iversity": 1577,
      "date": 1578,
      "ason": 1579,
      "ument": 1580,
      "Ġplace": 1581,
      "angu": 1582,
      "Once": 1583,
      "inal": 1584,
      "Ġcommunity": 1585,
      "Ġcalcul": 1586,
      "tr": 1587,
      "fully": 1588,
      "ios": 1589,
      "ĠTrue": 1590,
      "Ġenvironment": 1591,
      "Ġpur": 1592,
      "run": 1593,
      "Ġstruct": 1594,
      "pri": 1595,
      "Ġocc": 1596,
      "amp": 1597,
      "here": 1598,
      "Ġanim": 1599,
      "ĠThat": 1600,
      "Ġmethod": 1601,
      "ior": 1602,
      "Ġlikes": 1603,
      "Ġbra": 1604,
      "Ġtal": 1605,
      "Ġgover": 1606,
      "iled": 1607,
      "Ġest": 1608,
      "Ġgreat": 1609,
      ".\")": 1610,
      "ication": 1611,
      "lex": 1612,
      "ording": 1613,
      "Ġknown": 1614,
      "Ġsun": 1615,
      "Ġpotential": 1616,
      "Ġbegan": 1617,
      "Ġsignificant": 1618,
      "Ġben": 1619,
      "Ġexam": 1620,
      "Ġ201": 1621,
      "land": 1622,
      "Ġfocus": 1623,
      "ĠWhen": 1624,
      "Ġpresent": 1625,
      "Ġseveral": 1626,
      "Ġbus": 1627,
      "ret": 1628,
      "Ġ>": 1629,
      "Ġinclude": 1630,
      "ert": 1631,
      "ike": 1632,
      "Ġcases": 1633,
      "ĠVal": 1634,
      "Ġbehind": 1635,
      "ĠInd": 1636,
      "Ġfre": 1637,
      "pite": 1638,
      "illed": 1639,
      "ank": 1640,
      "Ġsoci": 1641,
      "ency": 1642,
      "Ġever": 1643,
      "Ġtop": 1644,
      "aterial": 1645,
      "Ġdetail": 1646,
      "ral": 1647,
      "Ġwr": 1648,
      "Ġexperience": 1649,
      "nown": 1650,
      "raph": 1651,
      "ots": 1652,
      "Ġnever": 1653,
      "Ġsometimes": 1654,
      "ncy": 1655,
      "iction": 1656,
      "Ġloved": 1657,
      "elves": 1658,
      "Ġsmart": 1659,
      "ries": 1660,
      "overed": 1661,
      "Ġchases": 1662,
      "Ġet": 1663,
      "Ġleg": 1664,
      "Ġtook": 1665,
      "Ġgr": 1666,
      "Ġsl": 1667,
      "ledge": 1668,
      "aging": 1669,
      "ium": 1670,
      "Ġvisits": 1671,
      "Ġstrong": 1672,
      "iona": 1673,
      "Ġelif": 1674,
      "Ġwhy": 1675,
      "Ġtyp": 1676,
      "oint": 1677,
      "selves": 1678,
      "usion": 1679,
      "Ġhygiene": 1680,
      "Ġheart": 1681,
      "Ġgroup": 1682,
      "Ġ&": 1683,
      "Ġfore": 1684,
      "Ġgiven": 1685,
      "Ġlearned": 1686,
      "Ġeats": 1687,
      "Ġthink": 1688,
      "Ġage": 1689,
      "Ġbro": 1690,
      "...": 1691,
      "Ġchildren": 1692,
      "oura": 1693,
      "ĠCheck": 1694,
      "ury": 1695,
      "Ġ+": 1696,
      "ners": 1697,
      "Ġinit": 1698,
      "Ġgovern": 1699,
      "Ġtrust": 1700,
      "Ġbecome": 1701,
      "Ġsees": 1702,
      "Ġfas": 1703,
      "Ġdr": 1704,
      "ched": 1705,
      "Ġscore": 1706,
      "ĠSp": 1707,
      "ĠNew": 1708,
      "Ġmove": 1709,
      "Ġlog": 1710,
      "Ġvalu": 1711,
      "Ġlooked": 1712,
      "ured": 1713,
      "Ġenergy": 1714,
      "Ġnext": 1715,
      "acter": 1716,
      "Ġcommon": 1717,
      "Ġbeaut": 1718,
      "Ġair": 1719,
      "Ġshared": 1720,
      "ĠGary": 1721,
      "agine": 1722,
      "ĠEm": 1723,
      "ised": 1724,
      "Ġdeep": 1725,
      "Ġphys": 1726,
      "19": 1727,
      "arlie": 1728,
      "ĠSh": 1729,
      "Ġcell": 1730,
      "Ġcome": 1731,
      "par": 1732,
      "ilities": 1733,
      "ĠFiona": 1734,
      "oice": 1735,
      "Ġhard": 1736,
      "Ġcap": 1737,
      "ane": 1738,
      "Ġelect": 1739,
      "Ġvaluable": 1740,
      "gin": 1741,
      "Ġinfl": 1742,
      "ger": 1743,
      "Ġlangu": 1744,
      "pportun": 1745,
      "Ġcondition": 1746,
      "ogn": 1747,
      "Ġcontrib": 1748,
      "Ġregard": 1749,
      "ield": 1750,
      "Ġlook": 1751,
      "Ġbecame": 1752,
      "Ġput": 1753,
      "ĠAfter": 1754,
      "Ġpublic": 1755,
      "Ġlight": 1756,
      "der": 1757,
      "aces": 1758,
      "parency": 1759,
      "ĠHarry": 1760,
      "Ġeas": 1761,
      "Ġexplaining": 1762,
      "Ġshap": 1763,
      "Ġproject": 1764,
      "Ġcertain": 1765,
      "Ġmult": 1766,
      "Ġrecommend": 1767,
      "Ġtype": 1768,
      "hers": 1769,
      "ables": 1770,
      "Ġnear": 1771,
      "Ġparticular": 1772,
      "ients": 1773,
      "Ġmaterial": 1774,
      "Ġaccess": 1775,
      "play": 1776,
      "ĠBob": 1777,
      "Ġappropri": 1778,
      "uture": 1779,
      "ĠRes": 1780,
      "Ġdra": 1781,
      "Ġrepresent": 1782,
      "Ġ10": 1783,
      "Ġwal": 1784,
      "Ġrespect": 1785,
      "soci": 1786,
      "iter": 1787,
      "apt": 1788,
      "It": 1789,
      "Ġsugg": 1790,
      "Ġvalues": 1791,
      "pos": 1792,
      "ols": 1793,
      "Ġenough": 1794,
      "ians": 1795,
      "Ġ**": 1796,
      "But": 1797,
      "rror": 1798,
      "Ġcomb": 1799,
      "Ġbi": 1800,
      "Ġ7": 1801,
      "ĠIs": 1802,
      "Ġspecific": 1803,
      "ĠSar": 1804,
      "ids": 1805,
      "ilar": 1806,
      "Ġdirect": 1807,
      "agement": 1808,
      "Ġopportun": 1809,
      "Ġlaw": 1810,
      "Ġself": 1811,
      "Ġmeas": 1812,
      "Ġcaus": 1813,
      "aly": 1814,
      "ĠDave": 1815,
      "Ġcouldn": 1816,
      "known": 1817,
      "Ġthroughout": 1818,
      "Ġbody": 1819,
      "Ġobject": 1820,
      "ender": 1821,
      "print": 1822,
      "ote": 1823,
      "Ġ<": 1824,
      "Ġpain": 1825,
      "reci": 1826,
      "Ġrisk": 1827,
      "ified": 1828,
      "ug": 1829,
      "Ġrelated": 1830,
      "Ġwat": 1831,
      "Ġname": 1832,
      "St": 1833,
      "iding": 1834,
      "Ġes": 1835,
      "Ġrelations": 1836,
      "de": 1837,
      "Ġindic": 1838,
      "Error": 1839,
      "Ġvari": 1840,
      "bs": 1841,
      "arth": 1842,
      "Ġimpact": 1843,
      "Ġchallenges": 1844,
      "Ġdesc": 1845,
      "Ġsit": 1846,
      "Ġfurry": 1847,
      "Ġknowledge": 1848,
      "Ġdi": 1849,
      "ours": 1850,
      "Ġsuggest": 1851,
      "Ġconsider": 1852,
      "Ġshare": 1853,
      "Ġtoday": 1854,
      "Ġinstead": 1855,
      "Ġconcer": 1856,
      "Ġmaintain": 1857,
      "ĠDef": 1858,
      "Ġensure": 1859,
      "Ġtransform": 1860,
      "Ġrest": 1861,
      "Ġteam": 1862,
      "cle": 1863,
      "ological": 1864,
      "Ġstories": 1865,
      "ĠFalse": 1866,
      "Ġer": 1867,
      "for": 1868,
      "Ġscient": 1869,
      "af": 1870,
      "Ġoper": 1871,
      "lease": 1872,
      "ĠAt": 1873,
      "Ġfurther": 1874,
      "Ġinvest": 1875,
      "ĠErin": 1876,
      "Ġdev": 1877,
      "ĠDry": 1878,
      "Ġpersonal": 1879,
      "ises": 1880,
      "perature": 1881,
      "Ġorig": 1882,
      "Ġrepl": 1883,
      "Ġtimes": 1884,
      "ograph": 1885,
      "Ġoutside": 1886,
      "Ġ:": 1887,
      "Ġfew": 1888,
      "Ġhead": 1889,
      "Ġsay": 1890,
      "Ġkey": 1891,
      "apter": 1892,
      "Ġcoll": 1893,
      "oot": 1894,
      "ĠCons": 1895,
      "Ġclos": 1896,
      "Ġdevelopment": 1897,
      "Ġmag": 1898,
      "Ġpriv": 1899,
      "Ġappropriate": 1900,
      "arent": 1901,
      "ĠCharlie": 1902,
      "Ġdidn": 1903,
      "'re": 1904,
      "name": 1905,
      "Ġsince": 1906,
      "Ġwee": 1907,
      "Ġcollect": 1908,
      "Ġrole": 1909,
      "iques": 1910,
      "Ġaction": 1911,
      "Ġlim": 1912,
      "ĠBen": 1913,
      "Ġnecess": 1914,
      "Ġhands": 1915,
      "rat": 1916,
      "Ġmessage": 1917,
      "Ġdry": 1918,
      "Ġfuture": 1919,
      "Ġpress": 1920,
      "Ġappreci": 1921,
      "conom": 1922,
      "ĠDe": 1923,
      "Ġclean": 1924,
      "ission": 1925,
      "Ġindividuals": 1926,
      "Ġessential": 1927,
      "Ġapproach": 1928,
      "Ġhaving": 1929,
      "ĠĊĠĠĠĠĠĠĠ": 1930,
      "inally": 1931,
      "Ġpolit": 1932,
      "ĠCl": 1933,
      "Ġdise": 1934,
      "ration": 1935,
      "Ġmark": 1936,
      "||": 1937,
      "Ġscen": 1938,
      "Ġjourney": 1939,
      "Ġlevels": 1940,
      "Ġissues": 1941,
      "rap": 1942,
      "orn": 1943,
      "Ġsound": 1944,
      "Ġknew": 1945,
      "Ġsmiled": 1946,
      "Ġune": 1947,
      "Ġrealized": 1948,
      "Ġquest": 1949,
      "asing": 1950,
      "Ġexploring": 1951,
      "Ġmind": 1952,
      "wh": 1953,
      "ĠValue": 1954,
      "resh": 1955,
      "ĊĠĠĠĠĠĠĠĠĠĠĠĠĠĠĠ": 1956,
      "ask": 1957,
      "ulation": 1958,
      "Ġonline": 1959,
      "Ġve": 1960,
      "Ġwond": 1961,
      "Ġhistor": 1962,
      "Ġcomput": 1963,
      "Ġworking": 1964,
      "iability": 1965,
      "Ġcr": 1966,
      "Ġways": 1967,
      "ĠThere": 1968,
      "Ġlast": 1969,
      "ray": 1970,
      "utions": 1971,
      "ploy": 1972,
      "ĠRet": 1973,
      "Ġpost": 1974,
      "Ġexpress": 1975,
      "tal": 1976,
      "istic": 1977,
      "atural": 1978,
      "iful": 1979,
      "Ġleft": 1980,
      "aps": 1981,
      "pped": 1982,
      "cin": 1983,
      "Ġstrateg": 1984,
      "Ġprotect": 1985,
      "000": 1986,
      "Ġarg": 1987,
      "Ġserv": 1988,
      "Ġexperiences": 1989,
      "ems": 1990,
      "fort": 1991,
      "Ġyet": 1992,
      "Ġcase": 1993,
      "Ġmeans": 1994,
      "Ġlove": 1995,
      "Ġconcept": 1996,
      "joy": 1997,
      "Ġant": 1998,
      "Ġ8": 1999,
      "ĠĠĠĠĊĠĠĠĠĠĠĠ": 2000,
      "idence": 2001,
      "ym": 2002,
      "ĠAnne": 2003,
      "\"]": 2004,
      "Ġwords": 2005,
      "pro": 2006,
      "Ġneeded": 2007,
      "Ġobs": 2008,
      "Ġavail": 2009,
      "ĠJoh": 2010,
      "ening": 2011,
      "Ġdays": 2012,
      "Ġclear": 2013,
      "ton": 2014,
      "An": 2015,
      "Ġhop": 2016,
      "ached": 2017,
      "fect": 2018,
      "Ġpast": 2019,
      "Ġscript": 2020,
      "Ġill": 2021,
      "lying": 2022,
      "Ġsimilar": 2023,
      "ze": 2024,
      "Ġbenef": 2025,
      "Ġinn": 2026,
      "ĠDis": 2027,
      "ĠTimmy": 2028,
      "Ġrelationship": 2029,
      "of": 2030,
      "ĠAmerican": 2031,
      "ule": 2032,
      "Ġcity": 2033,
      "Ġinflu": 2034,
      "input": 2035,
      "Ġactiv": 2036,
      "Ġresources": 2037,
      "ĠInc": 2038,
      "Ġquick": 2039,
      "though": 2040,
      "work": 2041,
      "ially": 2042,
      "Ġeth": 2043,
      "Ġlived": 2044,
      "Ġmeet": 2045,
      "Ġadvent": 2046,
      "Ġtechnology": 2047,
      "Ġstory": 2048,
      "ĠValueError": 2049,
      "ising": 2050,
      "Ġskills": 2051,
      "mat": 2052,
      "ource": 2053,
      "Ġterm": 2054,
      "Ġfost": 2055,
      "Ġcost": 2056,
      "Ġstru": 2057,
      "Ġans": 2058,
      "Ġauth": 2059,
      "Ġarr": 2060,
      "Ã¢": 2061,
      "Ġdiscovered": 2062,
      "ĠSarah": 2063,
      "Ġpie": 2064,
      "view": 2065,
      "ching": 2066,
      "olution": 2067,
      "Ġexist": 2068,
      "abl": 2069,
      "Ġgrowth": 2070,
      "ĠPl": 2071,
      "imate": 2072,
      "fessionals": 2073,
      "Ġbusiness": 2074,
      "Ġfollowing": 2075,
      "Ġmil": 2076,
      "Ġsing": 2077,
      "Ġenjoy": 2078,
      "Ġnature": 2079,
      "ored": 2080,
      "Ġeyes": 2081,
      "Ġaffect": 2082,
      "Ġonce": 2083,
      "Ĥ¬": 2084,
      "avor": 2085,
      "gs": 2086,
      "Ġpa": 2087,
      "ither": 2088,
      "20": 2089,
      "ĠCan": 2090,
      "âĤ¬": 2091,
      "Ġinside": 2092,
      "Ġsupp": 2093,
      "Ġresults": 2094,
      "Ġfar": 2095,
      "Ġbegin": 2096,
      "Ġrequired": 2097,
      "Ġgot": 2098,
      "umb": 2099,
      "Ġrece": 2100,
      "ptoms": 2101,
      "ames": 2102,
      "ths": 2103,
      "data": 2104,
      "Ġearly": 2105,
      "Ġsystems": 2106,
      "Ġstatement": 2107,
      "How": 2108,
      "Ġfil": 2109,
      "ards": 2110,
      "ĠMr": 2111,
      "Ġdiff": 2112,
      "Ġsurpr": 2113,
      "utes": 2114,
      "Ġmusic": 2115,
      "Ġvisit": 2116,
      ".âĢĿ": 2117,
      "Ġlarge": 2118,
      "Ġcontinued": 2119,
      "Ġcou": 2120,
      "Ġrange": 2121,
      "aily": 2122,
      "Ġaddress": 2123,
      "man": 2124,
      "iod": 2125,
      "Ġeconom": 2126,
      "eterm": 2127,
      "Ġinsp": 2128,
      "Ġcommunities": 2129,
      "ster": 2130,
      "Ġassoci": 2131,
      "Ġcust": 2132,
      "We": 2133,
      "Ġchanges": 2134,
      "che": 2135,
      "Ġarea": 2136,
      "rop": 2137,
      "Ġsecond": 2138,
      "aries": 2139,
      "use": 2140,
      "iced": 2141,
      "ĠHis": 2142,
      "What": 2143,
      "Ġwomen": 2144,
      "Ġlanguage": 2145,
      "ences": 2146,
      "ocument": 2147,
      "inary": 2148,
      "Ġwind": 2149,
      "Ġexcited": 2150,
      "Ġcourse": 2151,
      "Ġquestions": 2152,
      "Ġflo": 2153,
      "Ġhig": 2154,
      "Ġwa": 2155,
      "lection": 2156,
      "cially": 2157,
      "Ġplaying": 2158,
      "Ġworks": 2159,
      "Ġnon": 2160,
      "ĠHigh": 2161,
      "anced": 2162,
      "Ġaspect": 2163,
      "att": 2164,
      "ĠMay": 2165,
      "Ġlater": 2166,
      "Ġ9": 2167,
      "ĠSam": 2168,
      "ĠComm": 2169,
      "Ġemp": 2170,
      "Ġlay": 2171,
      "ĠDefine": 2172,
      "orporate": 2173,
      "xpected": 2174,
      "Ġquestion": 2175,
      "Ġcreating": 2176,
      "time": 2177,
      "Ġpractices": 2178,
      "yond": 2179,
      "ches": 2180,
      "Ġprovided": 2181,
      "Ġdetermine": 2182,
      "Ġground": 2183,
      "omet": 2184,
      "So": 2185,
      "Ġremember": 2186,
      "uro": 2187,
      "imed": 2188,
      "Ġfascin": 2189,
      "ĠThrough": 2190,
      "osp": 2191,
      "light": 2192,
      "ĠOr": 2193,
      "ffic": 2194,
      "Ġ*": 2195,
      "ĠEn": 2196,
      "Ġuses": 2197,
      "Ġspace": 2198,
      "Ġevent": 2199,
      "Ġtechniques": 2200,
      "ĠAm": 2201,
      "Ġapplic": 2202,
      "ĠBe": 2203,
      "Ġthemselves": 2204,
      "Now": 2205,
      "Ġview": 2206,
      "ged": 2207,
      "iverse": 2208,
      "Ġgovernment": 2209,
      "Ġbas": 2210,
      "10": 2211,
      "Ġgive": 2212,
      "Ġgoing": 2213,
      "Ġrequire": 2214,
      "Ġpred": 2215,
      "Ġconvers": 2216,
      "rist": 2217,
      "ineer": 2218,
      "ĠTrans": 2219,
      "Ġsays": 2220,
      "Ġsurf": 2221,
      "Ġareas": 2222,
      "Ġ199": 2223,
      "aged": 2224,
      "ĠZ": 2225,
      "Ġsure": 2226,
      "Ġface": 2227,
      "Ġbeautiful": 2228,
      "Ġ$": 2229,
      "Ġsimple": 2230,
      "Ġhold": 2231,
      "Ġjo": 2232,
      "Ġpolic": 2233,
      "ĠInst": 2234,
      "ĠWhile": 2235,
      "ms": 2236,
      "ands": 2237,
      "Ġprevent": 2238,
      "Ġgain": 2239,
      "Ġimprove": 2240,
      "Ġaccording": 2241,
      "df": 2242,
      "orth": 2243,
      "Ġbehav": 2244,
      "erc": 2245,
      "ĠAlex": 2246,
      "Ġabove": 2247,
      "Ġoccur": 2248,
      "Ġanalysis": 2249,
      "chie": 2250,
      "Ġintern": 2251,
      "Ġstat": 2252,
      "Ġsafety": 2253,
      "Ġconsid": 2254,
      "Ġglob": 2255,
      "Ġsat": 2256,
      "Ġrecogn": 2257,
      "ĠWhat": 2258,
      "Ġwarm": 2259,
      "ĠCol": 2260,
      "Ġfrequ": 2261,
      "Ġinteg": 2262,
      "Ġavailable": 2263,
      "ush": 2264,
      "Ġbreak": 2265,
      "ooks": 2266,
      "Ġregarding": 2267,
      "Ġfilled": 2268,
      "Ġmodern": 2269,
      "ĠTe": 2270,
      "urity": 2271,
      "Ġmembers": 2272,
      "clusion": 2273,
      "ĠSome": 2274,
      "ĠMar": 2275,
      "ĠUse": 2276,
      "Ġroom": 2277,
      "ĠOn": 2278,
      "Ġanimals": 2279,
      "Ġhy": 2280,
      "cks": 2281,
      "Ġdf": 2282,
      "ĊĠĠĠĠĠĠĠĠĊĠĠĠ": 2283,
      "reen": 2284,
      "Ġrather": 2285,
      "min": 2286,
      "Ġcra": 2287,
      "Ġmakes": 2288,
      "ĠSe": 2289,
      "oid": 2290,
      "Ġtotal": 2291,
      "Ġreport": 2292,
      "aught": 2293,
      "Ġliving": 2294,
      "cient": 2295,
      "Ġsum": 2296,
      "Ġextreme": 2297,
      "Ġcru": 2298,
      "sh": 2299,
      "Ġcir": 2300,
      "Ġline": 2301,
      "Ġsharing": 2302,
      "aling": 2303,
      "co": 2304,
      "Ġnatural": 2305,
      "Ġeducation": 2306,
      "To": 2307,
      "elling": 2308,
      "ges": 2309,
      "Ġimportance": 2310,
      "Ġbeyond": 2311,
      "Ġunexpected": 2312,
      "Ġbook": 2313,
      "Ġtown": 2314,
      "Ġwrit": 2315,
      "thing": 2316,
      "Ġhouse": 2317,
      "ina": 2318,
      "oph": 2319,
      "Ġprin": 2320,
      "Ġcollabor": 2321,
      "Ġsoft": 2322,
      "Ġwasn": 2323,
      "Ġtakes": 2324,
      "Ġharm": 2325,
      "Ġencoura": 2326,
      "action": 2327,
      "Ġheard": 2328,
      "Ġidea": 2329,
      "nces": 2330,
      "Ġtext": 2331,
      "ging": 2332,
      "Ġreason": 2333,
      "Ġboy": 2334,
      "ĠHer": 2335,
      "Ġrele": 2336,
      "ming": 2337,
      "atures": 2338,
      "ones": 2339,
      "ream": 2340,
      "Ġthin": 2341,
      "Ġmot": 2342,
      "Ġmulti": 2343,
      "ned": 2344,
      "Ġappear": 2345,
      "Ġtrue": 2346,
      "Ġz": 2347,
      "Ġscience": 2348,
      "Ġparent": 2349,
      "Ġlessons": 2350,
      "ma": 2351,
      "Ġrecord": 2352,
      "valid": 2353,
      "Ġproblems": 2354,
      "Ġinnov": 2355,
      "medi": 2356,
      "Ġestabl": 2357,
      "na": 2358,
      "nam": 2359,
      "Ġtaking": 2360,
      "icult": 2361,
      "Ġhours": 2362,
      "Ġparticip": 2363,
      "Ch": 2364,
      "Ġfull": 2365,
      "Ġcharacter": 2366,
      "ey": 2367,
      "comes": 2368,
      "denly": 2369,
      "ellow": 2370,
      "Ġtree": 2371,
      "Ġmor": 2372,
      "Ġpatient": 2373,
      "\".": 2374,
      "Ġmill": 2375,
      "roll": 2376,
      "Ġcultural": 2377,
      "oney": 2378,
      "Ġactions": 2379,
      "ĠPr": 2380,
      "Ġste": 2381,
      "Ġrout": 2382,
      "ires": 2383,
      "aster": 2384,
      "Ġemploy": 2385,
      "Ġperiod": 2386,
      "Ġimplements": 2387,
      "Ġdat": 2388,
      "sy": 2389,
      "Ġliter": 2390,
      "Ġregular": 2391,
      "Ġstay": 2392,
      "ĠDec": 2393,
      "care": 2394,
      "Ġprof": 2395,
      "ĠPh": 2396,
      "Ġ/": 2397,
      "Ġindust": 2398,
      "('": 2399,
      "Ġemot": 2400,
      "Ġcountry": 2401,
      "Ġlives": 2402,
      "pecially": 2403,
      "ĠUnknown": 2404,
      "Ġmodel": 2405,
      "ĠTom": 2406,
      "Ġside": 2407,
      "Ġbuilding": 2408,
      "ump": 2409,
      "Ġdig": 2410,
      "Ġremind": 2411,
      "Ġfree": 2412,
      "ĠCalcul": 2413,
      "egin": 2414,
      "Ġfamil": 2415,
      "ik": 2416,
      "eral": 2417,
      "Ġsample": 2418,
      "eth": 2419,
      "pping": 2420,
      "Ġnet": 2421,
      "ules": 2422,
      "ried": 2423,
      "ashing": 2424,
      "Ġnorm": 2425,
      "Ġfour": 2426,
      "rame": 2427,
      "ĠReturn": 2428,
      "iny": 2429,
      "Ġimm": 2430,
      "Ġtravel": 2431,
      "Ġran": 2432,
      "ĠExt": 2433,
      "')": 2434,
      "ude": 2435,
      "Ġturned": 2436,
      "Ġlogic": 2437,
      "ĠMed": 2438,
      "Ġspecies": 2439,
      "Ġachie": 2440,
      "Ġpercent": 2441,
      "ĠDr": 2442,
      "ery": 2443,
      "Ġpath": 2444,
      "let": 2445,
      "Ġnecessary": 2446,
      "ĠInt": 2447,
      "orld": 2448,
      "Ġmean": 2449,
      "ĠĊĠĠĠĠĠĠĠĠĠĠĠ": 2450,
      "ended": 2451,
      "Ġeverything": 2452,
      "jor": 2453,
      "Ġsoon": 2454,
      "not": 2455,
      "ator": 2456,
      "Ġshort": 2457,
      "plic": 2458,
      "Ġblood": 2459,
      "Ġcomes": 2460,
      "Ġevents": 2461,
      "Ġsymptoms": 2462,
      "ĠChrist": 2463,
      "Ġneg": 2464,
      "resp": 2465,
      "rought": 2466,
      "Ġtreatment": 2467,
      "Ġeat": 2468,
      "Ġdaily": 2469,
      "Ġcontinue": 2470,
      "icle": 2471,
      "rect": 2472,
      "ators": 2473,
      "Ġmeaning": 2474,
      "Ġtraditional": 2475,
      "Ġhelps": 2476,
      "Ġcapt": 2477,
      "Ġtemperature": 2478,
      "Ġleav": 2479,
      "Ġdisease": 2480,
      "elif": 2481,
      "stain": 2482,
      "'ll": 2483,
      "Ġled": 2484,
      "Ġimplementation": 2485,
      "lt": 2486,
      "Ġquickly": 2487,
      "Ġstreng": 2488,
      "'ve": 2489,
      "Ġtypes": 2490,
      "Ġcustom": 2491,
      "Ġfall": 2492,
      "ĠLet": 2493,
      "Ġemerg": 2494,
      "Ġstore": 2495,
      "ĠAf": 2496,
      "ĠSc": 2497,
      "Ġreflect": 2498,
      "sp": 2499,
      "onstr": 2500,
      "Ġsens": 2501,
      "arc": 2502,
      "eper": 2503,
      "Ġconsum": 2504,
      "Ġespecially": 2505,
      "imately": 2506,
      "Ġhistorical": 2507,
      "Invalid": 2508,
      "aching": 2509,
      "Ġfactors": 2510,
      "Ġrelig": 2511,
      "oman": 2512,
      "Ġsitu": 2513,
      "Ġprinci": 2514,
      "Ġfig": 2515,
      "Ġamount": 2516,
      "Ġsurround": 2517,
      "Ġbring": 2518,
      "sequ": 2519,
      "istance": 2520,
      "ĠDes": 2521,
      "Ġpractice": 2522,
      "Ġactivities": 2523,
      "rig": 2524,
      "aches": 2525,
      "Ġraise": 2526,
      "avig": 2527,
      "etic": 2528,
      "Ġopportunities": 2529,
      "Ġfavor": 2530,
      "Ġcommunication": 2531,
      "Ġnoticed": 2532,
      "ctor": 2533,
      "Ġorder": 2534,
      "ĠExper": 2535,
      "Ġhab": 2536,
      "Ġdepending": 2537,
      "Ġefforts": 2538,
      "ded": 2539,
      "ape": 2540,
      "ony": 2541,
      "Ġ>=": 2542,
      "Ġcells": 2543,
      "Ġce": 2544,
      "Ġable": 2545,
      "ĠUniversity": 2546,
      "ĠIncorporate": 2547,
      "Ġfascinating": 2548,
      "eter": 2549,
      "Ġcrucial": 2550,
      "Ġadapt": 2551,
      "Ġembra": 2552,
      "Ġstrugg": 2553,
      "Ġmen": 2554,
      "Ġupd": 2555,
      "nderstand": 2556,
      "Ġnight": 2557,
      "ĊĠĠĠĠĠĠĠĠĠĠĠĠĠĠĠĠ": 2558,
      "Ġdemonstr": 2559,
      "ption": 2560,
      "Ġcompet": 2561,
      "II": 2562,
      "Ġgroups": 2563,
      "Ġanaly": 2564,
      "ters": 2565,
      "Al": 2566,
      "ĠLow": 2567,
      "Ġfield": 2568,
      "ĠJohn": 2569,
      "ival": 2570,
      "ĠApp": 2571,
      "ias": 2572,
      "Ġfarm": 2573,
      "trans": 2574,
      "Ġphysical": 2575,
      "Ġx": 2576,
      "Ġentire": 2577,
      "iment": 2578,
      "Ġgame": 2579,
      "ĠAnalysis": 2580,
      "porary": 2581,
      "Ġsafe": 2582,
      "ĠUnited": 2583,
      "Ġfeeling": 2584,
      "ĠTheir": 2585,
      "ulations": 2586,
      "go": 2587,
      "Ġfund": 2588,
      "Ġminim": 2589,
      "Ġmethods": 2590,
      "Ġassociated": 2591,
      "ĠMe": 2592,
      "ĠFr": 2593,
      "ĠX": 2594,
      "Ġdiv": 2595,
      "Ġleading": 2596,
      "ervation": 2597,
      "urope": 2598,
      "Ġcut": 2599,
      "irt": 2600,
      "Ġscenar": 2601,
      "Ġtru": 2602,
      "ably": 2603,
      "Ġplant": 2604,
      "Ġsmo": 2605,
      "Ġdespite": 2606,
      "ille": 2607,
      "ĠMy": 2608,
      "ĠOnce": 2609,
      "Ġcolor": 2610,
      "vious": 2611,
      "Ġdam": 2612,
      "Ġrad": 2613,
      "Ġextra": 2614,
      "Ġseemed": 2615,
      "Ġpark": 2616,
      "Ġsteps": 2617,
      "ĠTra": 2618,
      "Ġtools": 2619,
      "Ġsal": 2620,
      "Ġdifficult": 2621,
      "oon": 2622,
      "Ġmaterials": 2623,
      "eed": 2624,
      "Ġtransparency": 2625,
      "erous": 2626,
      "Ġeither": 2627,
      "Ġguid": 2628,
      "ndom": 2629,
      "Ġisn": 2630,
      "ĠUs": 2631,
      "Ġperfect": 2632,
      "Ġsustain": 2633,
      "Ġattention": 2634,
      "Ġsingle": 2635,
      "Ġsent": 2636,
      "Ġoverall": 2637,
      "Ġbird": 2638,
      "itation": 2639,
      "ĠFl": 2640,
      "Ġculture": 2641,
      "ww": 2642,
      "ĠUp": 2643,
      "Ġperspect": 2644,
      "Ġdeeper": 2645,
      "Ġdoing": 2646,
      "ilt": 2647,
      "verage": 2648,
      "terns": 2649,
      "Ġdescrib": 2650,
      "Ġones": 2651,
      "Ġtell": 2652,
      "Ġjob": 2653,
      "oud": 2654,
      "Ġweight": 2655,
      "Ġspir": 2656,
      "ference": 2657,
      "Ġwar": 2658,
      "ishing": 2659,
      "Enter": 2660,
      "atic": 2661,
      "When": 2662,
      "Ġmedical": 2663,
      "Ġreally": 2664,
      "Ġheav": 2665,
      "Ġreve": 2666,
      "Ġexcept": 2667,
      "Ġhigher": 2668,
      "Ġcause": 2669,
      "Ġhowever": 2670,
      "ox": 2671,
      "Ġcal": 2672,
      "Ġglobal": 2673,
      "hand": 2674,
      "Ġsad": 2675,
      "Ġ15": 2676,
      "ĠLe": 2677,
      "reed": 2678,
      "ply": 2679,
      "Ġseen": 2680,
      "Ġtaken": 2681,
      "Ġpolitical": 2682,
      "ĠFrom": 2683,
      "Ġinstance": 2684,
      "Ġleast": 2685,
      "Ġauthor": 2686,
      "ression": 2687,
      "Ġaccount": 2688,
      "onse": 2689,
      "Des": 2690,
      "Ġprim": 2691,
      "Ġphot": 2692,
      "duct": 2693,
      "ification": 2694,
      "Ġdiverse": 2695,
      "uild": 2696,
      "Ġmajor": 2697,
      "ĠMax": 2698,
      "ĠGod": 2699,
      "ĠBegin": 2700,
      "Ġengine": 2701,
      "itness": 2702,
      "zing": 2703,
      "Ġenh": 2704,
      "Ġcreated": 2705,
      "Ġ|": 2706,
      "score": 2707,
      "Ġproducts": 2708,
      "Ġ.": 2709,
      "ubl": 2710,
      "Ġcritical": 2711,
      "level": 2712,
      "wise": 2713,
      "Ã©": 2714,
      "ips": 2715,
      "uck": 2716,
      "Ġplants": 2717,
      "dle": 2718,
      "Ġnod": 2719,
      "No": 2720,
      "high": 2721,
      "isions": 2722,
      "erson": 2723,
      "Ġlooking": 2724,
      "Ġenvironmental": 2725,
      "oes": 2726,
      "ĠEurope": 2727,
      "Ġelements": 2728,
      "enge": 2729,
      "iring": 2730,
      "Ġpopular": 2731,
      "Ġconnections": 2732,
      "more": 2733,
      "Ġeffic": 2734,
      "You": 2735,
      "Ġbrought": 2736,
      "Ġmoment": 2737,
      "Ġintrodu": 2738,
      ":**": 2739,
      "Ġfile": 2740,
      "Ġeye": 2741,
      "Ġdisplay": 2742,
      "tt": 2743,
      "ĠAfric": 2744,
      "Ġsuper": 2745,
      "Ġur": 2746,
      "ung": 2747,
      "osed": 2748,
      "Ġinsights": 2749,
      "Ġvol": 2750,
      "ĠBl": 2751,
      "Ġsociety": 2752,
      "itle": 2753,
      "ails": 2754,
      "dom": 2755,
      "Ġnar": 2756,
      "Ġgard": 2757,
      "Ġtraining": 2758,
      "Ġspread": 2759,
      "Ġaccept": 2760,
      "iar": 2761,
      "atory": 2762,
      "ĠJust": 2763,
      "ott": 2764,
      "Ġmatter": 2765,
      "ĠEvery": 2766,
      "Ġmarket": 2767,
      "rain": 2768,
      "ĠStates": 2769,
      "atives": 2770,
      "Ġcalculate": 2771,
      "Ġcho": 2772,
      "Ġlibr": 2773,
      "Ġdiscover": 2774,
      "12": 2775,
      "Ġcentury": 2776,
      "making": 2777,
      "Ġpict": 2778,
      "ĠMore": 2779,
      "tem": 2780,
      "Ġweek": 2781,
      "Ġmach": 2782,
      "ously": 2783,
      "itten": 2784,
      "Ġselect": 2785,
      "Ġgreater": 2786,
      "Ġcurious": 2787,
      "iosity": 2788,
      "Ġtrying": 2789,
      "Ġexplained": 2790,
      "Ġsurface": 2791,
      "Ġslow": 2792,
      "ruction": 2793,
      "Ġadventure": 2794,
      "Ġdeb": 2795,
      "Ġpatterns": 2796,
      "ĠMaking": 2797,
      "Ġpay": 2798,
      "Ġnavig": 2799,
      "Ġprivacy": 2800,
      "Ġmoney": 2801,
      "Ġmanagement": 2802,
      "ĠNo": 2803,
      "Ex": 2804,
      "Ġmax": 2805,
      "Ġdest": 2806,
      "Ġsett": 2807,
      "ring": 2808,
      "agn": 2809,
      "Ġrights": 2810,
      "Ġallows": 2811,
      "une": 2812,
      "ĠRed": 2813,
      "Ġcontem": 2814,
      "oday": 2815,
      "Ġaud": 2816,
      "Ġtold": 2817,
      "Ġthr": 2818,
      "Ġword": 2819,
      ":\")": 2820,
      "ĠReturns": 2821,
      "Ġyourself": 2822,
      "[\"": 2823,
      "Section": 2824,
      "oll": 2825,
      "Ġgender": 2826,
      "ĠThen": 2827,
      "alf": 2828,
      "Let": 2829,
      "Ġoffer": 2830,
      "Ġskin": 2831,
      "Ġdy": 2832,
      "iol": 2833,
      "ĠPer": 2834,
      "Ġdraw": 2835,
      "etermine": 2836,
      "Ġmultiple": 2837,
      "Ġexpert": 2838,
      "Ġmedia": 2839,
      "Ġinvolved": 2840,
      "leep": 2841,
      "Ġcontext": 2842,
      "Ġteac": 2843,
      "urt": 2844,
      "Ġpressure": 2845,
      "chan": 2846,
      "Ġconsent": 2847,
      "Ġvers": 2848,
      "ĠCent": 2849,
      "Ġ\")": 2850,
      "ĠNational": 2851,
      "Ġpassed": 2852,
      "ware": 2853,
      "itiz": 2854,
      "Ġsil": 2855,
      "ancing": 2856,
      "Ġinteract": 2857,
      "reate": 2858,
      "Ġabs": 2859,
      "Ġhappened": 2860,
      "Ġexerc": 2861,
      "Ġimmedi": 2862,
      "Ġitself": 2863,
      "ĠDecision": 2864,
      "For": 2865,
      "Im": 2866,
      "where": 2867,
      "erate": 2868,
      "Ġpassion": 2869,
      "Ġstrategies": 2870,
      "Ġsense": 2871,
      "from": 2872,
      "Ġaspects": 2873,
      "Yes": 2874,
      "ley": 2875,
      "ighb": 2876,
      "arget": 2877,
      "Ġforward": 2878,
      "rate": 2879,
      "lebr": 2880,
      "nderstanding": 2881,
      "ground": 2882,
      "Ġvalid": 2883,
      "==": 2884,
      "ĠEarth": 2885,
      "Ġbooks": 2886,
      "ctions": 2887,
      "ĊĠĠĠĠĠĠĠĠĊĠĠĠĠĠĠĠ": 2888,
      "Ġsimply": 2889,
      "Ġresearc": 2890,
      "ĠMan": 2891,
      "hood": 2892,
      "ims": 2893,
      "Ġchallenge": 2894,
      "Ġclose": 2895,
      "Ġdetailed": 2896,
      "18": 2897,
      "ift": 2898,
      "Ġincreasing": 2899,
      "Ġideas": 2900,
      "Ġresponsibility": 2901,
      "Ġadded": 2902,
      "ĠBeginners": 2903,
      "eds": 2904,
      "Ġmid": 2905,
      "athy": 2906,
      "Ġenter": 2907,
      "ĠEngineer": 2908,
      "Ġded": 2909,
      "Ġann": 2910,
      "Ġincorpor": 2911,
      "osing": 2912,
      "Ġpaper": 2913,
      "import": 2914,
      "Ġcountries": 2915,
      "ĠExtreme": 2916,
      "Ġtou": 2917,
      "Ġver": 2918,
      "Ġitems": 2919,
      "ops": 2920,
      "ready": 2921,
      "ivil": 2922,
      "Ġparents": 2923,
      "ether": 2924,
      "ole": 2925,
      "Ġparts": 2926,
      "Ġpoints": 2927,
      "And": 2928,
      "Ġquality": 2929,
      "ison": 2930,
      "coming": 2931,
      "sych": 2932,
      "ites": 2933,
      "vere": 2934,
      "Ġcontaining": 2935,
      "ĠPe": 2936,
      "Ġevidence": 2937,
      "Ġprogress": 2938,
      "Ġoriginal": 2939,
      "Ġsepar": 2940,
      "fer": 2941,
      "Ġbar": 2942,
      "het": 2943,
      "oose": 2944,
      "Ġlab": 2945,
      "Ġadditional": 2946,
      "Ġlik": 2947,
      "ĠExperts": 2948,
      "Ġobser": 2949,
      "Ġrelationships": 2950,
      "Ġprob": 2951,
      ",âĢĿ": 2952,
      "âĢĵ": 2953,
      "ults": 2954,
      "Ġplayed": 2955,
      "Ġreliability": 2956,
      "Ġhimself": 2957,
      "Ġball": 2958,
      "Ġpositive": 2959,
      "Ġaltern": 2960,
      "Ġpromot": 2961,
      "ĠGen": 2962,
      "15": 2963,
      "uing": 2964,
      "Ġactivity": 2965,
      "Ġfavorite": 2966,
      "epend": 2967,
      "ĠWar": 2968,
      "most": 2969,
      "Ġcool": 2970,
      "Ġwhole": 2971,
      "overy": 2972,
      "Ġbreat": 2973,
      "Ġincreased": 2974,
      "Ġter": 2975,
      "Ġhom": 2976,
      "used": 2977,
      "Ġunit": 2978,
      "Ġnumbers": 2979,
      "Ġchem": 2980,
      "ĠProfessionals": 2981,
      "Ġpatients": 2982,
      "Ġworked": 2983,
      "Ġchoice": 2984,
      "ĠYour": 2985,
      "Ġpowerful": 2986,
      "He": 2987,
      "Ġlive": 2988,
      "ditionally": 2989,
      "uel": 2990,
      "hel": 2991,
      "Ġexact": 2992,
      "hus": 2993,
      "Ġindicating": 2994,
      "Ġgave": 2995,
      "acks": 2996,
      "Ġneighb": 2997,
      "Ġbehavior": 2998,
      "Ġcirc": 2999,
      "Ġalready": 3000,
      "Ġtable": 3001,
      "Ġstudies": 3002,
      "Ġprovides": 3003,
      ":\",": 3004,
      "zz": 3005,
      "rant": 3006,
      "Ġconsist": 3007,
      "Step": 3008,
      "ird": 3009,
      "ES": 3010,
      "Ġcy": 3011,
      "hygiene": 3012,
      "yle": 3013,
      "Ġlower": 3014,
      "nee": 3015,
      "At": 3016,
      "while": 3017,
      "Ġcelebr": 3018,
      "ura": 3019,
      "enc": 3020,
      "Ġactually": 3021,
      "Ġhealthy": 3022,
      "iable": 3023,
      "Ġfoot": 3024,
      "Ġdone": 3025,
      "ystem": 3026,
      "Ġago": 3027,
      "Ġ12": 3028,
      "Ġhope": 3029,
      "Ġeffects": 3030,
      "ĠSim": 3031,
      "Ġthinking": 3032,
      "Ġoil": 3033,
      "ĠJew": 3034,
      "Tr": 3035,
      "Ġ17": 3036,
      "ĠOver": 3037,
      "Ġparticularly": 3038,
      "Ġoffic": 3039,
      "Ġcolum": 3040,
      "ything": 3041,
      "Ġmonths": 3042,
      "ĠFinally": 3043,
      "Ġensuring": 3044,
      "Ġgetting": 3045,
      "mon": 3046,
      "Ċĉ": 3047,
      "Ġenthus": 3048,
      "alu": 3049,
      "Ġfish": 3050,
      "Ġloss": 3051,
      "head": 3052,
      "itions": 3053,
      "Ġcuriosity": 3054,
      "Ġarch": 3055,
      "uth": 3056,
      "aced": 3057,
      "Ġrandom": 3058,
      "Ġamaz": 3059,
      "itting": 3060,
      "haps": 3061,
      "Ġetc": 3062,
      "They": 3063,
      "âĢľ": 3064,
      "iation": 3065,
      "ĠConsider": 3066,
      "():": 3067,
      "Ġfail": 3068,
      "ER": 3069,
      "reg": 3070,
      "umbled": 3071,
      "izations": 3072,
      "Ġcancer": 3073,
      "ests": 3074,
      "ogether": 3075,
      "way": 3076,
      "Ġperformance": 3077,
      "Ġsubject": 3078,
      "ĠWorld": 3079,
      "Ġscenarios": 3080,
      "Ġwild": 3081,
      "Ġcla": 3082,
      "Ġcontent": 3083,
      "Ġhair": 3084,
      "roud": 3085,
      "Ġcompon": 3086,
      "Ġanything": 3087,
      "ront": 3088,
      "ologies": 3089,
      "ĠĠĠĠĊĠĠĠ": 3090,
      "ĠHealth": 3091,
      "Ġblack": 3092,
      "Ġparam": 3093,
      "Ġdesigned": 3094,
      "Ġbrain": 3095,
      "###": 3096,
      "like": 3097,
      "fact": 3098,
      "Ġi": 3099,
      "Ġge": 3100,
      "Ġresearchers": 3101,
      "asks": 3102,
      "flict": 3103,
      "Ġhelped": 3104,
      "Ġmiss": 3105,
      "Ġdom": 3106,
      "Ġrev": 3107,
      "Ġcomputer": 3108,
      "Ġconcerns": 3109,
      "idst": 3110,
      "Ġreading": 3111,
      "Ġfloat": 3112,
      "Ġrecent": 3113,
      "ĠSec": 3114,
      "ĠJack": 3115,
      "Ġfinally": 3116,
      "Ġlate": 3117,
      "rand": 3118,
      "Ġfive": 3119,
      "Ġagreed": 3120,
      "Ġbound": 3121,
      "ĠSu": 3122,
      "ĠNow": 3123,
      "itted": 3124,
      "However": 3125,
      "Ġwis": 3126,
      "Ġut": 3127,
      "ĠProv": 3128,
      "Ġproud": 3129,
      "Ġweather": 3130,
      "Ġconsidered": 3131,
      "sv": 3132,
      "cons": 3133,
      "Ġprep": 3134,
      "Ġcleaning": 3135,
      "oration": 3136,
      "rog": 3137,
      "room": 3138,
      "Ġforms": 3139,
      "Ġcarefully": 3140,
      "Ġheld": 3141,
      "Ġreplied": 3142,
      "Ġupdate": 3143,
      "ĠEl": 3144,
      "uddenly": 3145,
      "Ġkids": 3146,
      "ĠStud": 3147,
      "Ġinvestig": 3148,
      "Ġusers": 3149,
      "If": 3150,
      "Ġnut": 3151,
      "phas": 3152,
      "Ġbelieve": 3153,
      "cking": 3154,
      "ancial": 3155,
      "Ġmass": 3156,
      "Ġ30": 3157,
      "Ġusually": 3158,
      "Ġresponse": 3159,
      "Ġbalance": 3160,
      "oun": 3161,
      "ĊĠĠĠĠĊĠĠĠĠĠĠĠ": 3162,
      "Ġadm": 3163,
      "Ġhumans": 3164,
      "rior": 3165,
      "Ġcorrect": 3166,
      "elcome": 3167,
      "Ġsources": 3168,
      "Ġmyself": 3169,
      "Ġcompany": 3170,
      "Ġforest": 3171,
      "Ġsubst": 3172,
      "Ġsex": 3173,
      "Ġleaders": 3174,
      "akes": 3175,
      "That": 3176,
      "Ġancient": 3177,
      "Ġspirit": 3178,
      "Ġinform": 3179,
      "rim": 3180,
      "Ġthreat": 3181,
      "main": 3182,
      "Ġspent": 3183,
      "Ġvariables": 3184,
      "Ġlost": 3185,
      "pre": 3186,
      "Ġcontact": 3187,
      "amin": 3188,
      "Ġmechan": 3189,
      "Ġoptions": 3190,
      "De": 3191,
      "just": 3192,
      "Ġap": 3193,
      "Ġthing": 3194,
      "Ġbenefits": 3195,
      "Ġdeg": 3196,
      "Ġrelev": 3197,
      "Ġquite": 3198,
      "reshold": 3199,
      "Ġport": 3200,
      "oad": 3201,
      "50": 3202,
      "pid": 3203,
      "Ġappe": 3204,
      "Bob": 3205,
      "Ġfair": 3206,
      "Ġeffective": 3207,
      "Ġsky": 3208,
      "Ġmic": 3209,
      "Ġidentify": 3210,
      "Ġrow": 3211,
      "Ġprograms": 3212,
      "Ġbroad": 3213,
      "Ġtarget": 3214,
      "Ġbox": 3215,
      "ĠAct": 3216,
      "Ġrich": 3217,
      "ĠCont": 3218,
      "Ġonto": 3219,
      "Ġcontribute": 3220,
      "Ġevalu": 3221,
      "Ġresponsible": 3222,
      "30": 3223,
      "ĠOur": 3224,
      "There": 3225,
      "Ġcolle": 3226,
      "Ġprinciples": 3227,
      "urs": 3228,
      "ĠRem": 3229,
      "Ġprevious": 3230,
      "Ġmedic": 3231,
      "])": 3232,
      "ken": 3233,
      "oe": 3234,
      "earch": 3235,
      "ingly": 3236,
      "nal": 3237,
      "Ġbelow": 3238,
      "ĠAb": 3239,
      "Ġflu": 3240,
      "ĠRep": 3241,
      "ends": 3242,
      "AS": 3243,
      "Ġpreser": 3244,
      "lish": 3245,
      "adem": 3246,
      "Ġissue": 3247,
      "Ġreturns": 3248,
      "Ġproduction": 3249,
      "hib": 3250,
      "Ġing": 3251,
      "Ġopp": 3252,
      "Ġmis": 3253,
      "Ġdelic": 3254,
      "Ġla": 3255,
      "ĠUS": 3256,
      "Ġpredict": 3257,
      "Ġ100": 3258,
      "ifically": 3259,
      "Ġsuccessful": 3260,
      "Ġgrowing": 3261,
      "rite": 3262,
      "test": 3263,
      "Ġtherap": 3264,
      "Ġfa": 3265,
      "Ġreduce": 3266,
      "ĠCalculate": 3267,
      "atform": 3268,
      "Ġaware": 3269,
      "Ġhu": 3270,
      "ume": 3271,
      "Ġincrease": 3272,
      "Ġtried": 3273,
      "Ġsource": 3274,
      "Ġfollowed": 3275,
      "With": 3276,
      "elines": 3277,
      "Ġresil": 3278,
      "gor": 3279,
      "Ġstumbled": 3280,
      "Ġwritten": 3281,
      "ltimately": 3282,
      "cip": 3283,
      "**:": 3284,
      "Ġinitial": 3285,
      "Ġfostering": 3286,
      "atter": 3287,
      "based": 3288,
      "Ġclimate": 3289,
      "Ġcross": 3290,
      "Ġallowing": 3291,
      "Ġpopulation": 3292,
      "ossing": 3293,
      "Ġconnection": 3294,
      "Ġservices": 3295,
      "Ġnic": 3296,
      "Ġnational": 3297,
      "icles": 3298,
      "Ġvisual": 3299,
      "Ġrunning": 3300,
      "Ġcontemporary": 3301,
      "Ġdiet": 3302,
      "idden": 3303,
      "weet": 3304,
      "Ġmental": 3305,
      "Ġvide": 3306,
      "Ġrules": 3307,
      "Ġdeath": 3308,
      "Ġsurprise": 3309,
      "Ġminutes": 3310,
      "Ġfinal": 3311,
      "ected": 3312,
      "ĠNot": 3313,
      "ĠPre": 3314,
      "Ġ198": 3315,
      "eration": 3316,
      "Ġpubl": 3317,
      "Ġhalf": 3318,
      "Ġproviding": 3319,
      "plement": 3320,
      "Ġwonder": 3321,
      "Ġdark": 3322,
      "odies": 3323,
      "Ġtechnique": 3324,
      "Ġanswer": 3325,
      "onding": 3326,
      "extreme": 3327,
      "Ġpiece": 3328,
      "ville": 3329,
      "iety": 3330,
      "Ġcamp": 3331,
      "Ġability": 3332,
      "ĠGerm": 3333,
      "ding": 3334,
      "itary": 3335,
      "Ġclot": 3336,
      "Ġ16": 3337,
      "ĠYork": 3338,
      "rast": 3339,
      "ictionary": 3340,
      "Ġcam": 3341,
      "Ġcomfort": 3342,
      "ĠGe": 3343,
      "Ġfeatures": 3344,
      "Ġfinding": 3345,
      "Ġwin": 3346,
      "Ġfru": 3347,
      "Ġprofessional": 3348,
      "ensive": 3349,
      "Ġaccom": 3350,
      "roduction": 3351,
      "mented": 3352,
      "Ġbuilt": 3353,
      "Ġachieve": 3354,
      "itude": 3355,
      "Ġcop": 3356,
      "ils": 3357,
      "ditions": 3358,
      "Ġearl": 3359,
      "uted": 3360,
      "Ġsearch": 3361,
      "ĠEach": 3362,
      "After": 3363,
      "Ġfellow": 3364,
      "Ġec": 3365,
      "Ġbelief": 3366,
      "Ġdetails": 3367,
      "bo": 3368,
      "Ġ__": 3369,
      "Ġoutput": 3370,
      "ĠReg": 3371,
      "Ġregion": 3372,
      "Ġscientists": 3373,
      "ĠQ": 3374,
      "ĠUnderstanding": 3375,
      "Ġprompt": 3376,
      "ĠHand": 3377,
      "Ġpu": 3378,
      "Ġconflict": 3379,
      "Ġeconomic": 3380,
      "Ġrequires": 3381,
      "Ġscientific": 3382,
      "Ġchapter": 3383,
      "Ġcompared": 3384,
      "empt": 3385,
      "Ġtransport": 3386,
      "Ġcateg": 3387,
      "Ġviol": 3388,
      "Ġsize": 3389,
      "Ġcompan": 3390,
      "ĠThom": 3391,
      "Ġdoesn": 3392,
      "Ġfear": 3393,
      "Ġdeveloped": 3394,
      "ĠAmerica": 3395,
      "Ġsymb": 3396,
      "ann": 3397,
      "mb": 3398,
      "Ġeager": 3399,
      "IN": 3400,
      "ler": 3401,
      "Ġhor": 3402,
      "rated": 3403,
      "Ġwood": 3404,
      "Ġdream": 3405,
      "Ġund": 3406,
      "olic": 3407,
      "Ġask": 3408,
      "Ġdecisions": 3409,
      "Ġstudent": 3410,
      "Ġlikely": 3411,
      "life": 3412,
      "cious": 3413,
      "illing": 3414,
      "astic": 3415,
      "Ġbit": 3416,
      "ying": 3417,
      "arily": 3418,
      "Ġshape": 3419,
      "Ġrate": 3420,
      "ĠIntern": 3421,
      "Ġfeed": 3422,
      "ĠAdditionally": 3423,
      "gorith": 3424,
      "uments": 3425,
      "ĠEven": 3426,
      "Ġgeneral": 3427,
      "ID": 3428,
      "right": 3429,
      "Ġamidst": 3430,
      "Ġoptim": 3431,
      "\"{": 3432,
      "Ġtaught": 3433,
      "ĠHist": 3434,
      "ooking": 3435,
      "Ġethical": 3436,
      "Ġvoice": 3437,
      "ĠPar": 3438,
      "orks": 3439,
      "itable": 3440,
      "Ġincred": 3441,
      "//": 3442,
      "Ġhon": 3443,
      "Ġinvolves": 3444,
      "Ġgrand": 3445,
      "Ġstructure": 3446,
      "Ġsite": 3447,
      "Ġexactly": 3448,
      "Ġmaintaining": 3449,
      "Ġansw": 3450,
      "Ġlot": 3451,
      "Ġsurv": 3452,
      "pper": 3453,
      "duc": 3454,
      "Ġnews": 3455,
      "ĠBrit": 3456,
      "Ġmeasure": 3457,
      "Ġmention": 3458,
      "Ġready": 3459,
      "Ġcollaboration": 3460,
      "Ġ\\": 3461,
      "rown": 3462,
      "efore": 3463,
      "Ġfaced": 3464,
      "Ġlandsc": 3465,
      "ought": 3466,
      "Ġmodule": 3467,
      "ister": 3468,
      "irm": 3469,
      "set": 3470,
      "Ġsolutions": 3471,
      "Ġmillion": 3472,
      "Ġnormal": 3473,
      "Ġlonger": 3474,
      "Ġgarden": 3475,
      "11": 3476,
      "Ġfinancial": 3477,
      "ĠAlthough": 3478,
      "Ġfamilies": 3479,
      "Ġlif": 3480,
      "Ġemphas": 3481,
      "Ġprec": 3482,
      "Ġreached": 3483,
      "ĠRel": 3484,
      "Ġservice": 3485,
      "ĠLu": 3486,
      "inct": 3487,
      "Ġcannot": 3488,
      "Ġshowed": 3489,
      "Ġtalk": 3490,
      "ON": 3491,
      "oles": 3492,
      "Ġimagine": 3493,
      "Ġdistrib": 3494,
      "ira": 3495,
      "ĠImplement": 3496,
      "Ġsecurity": 3497,
      "Ġtruly": 3498,
      "Ġmut": 3499,
      "Ġeasy": 3500,
      "Ġsuggested": 3501,
      "Ġaverage": 3502,
      "Ġwall": 3503,
      "Ġconduct": 3504,
      "ography": 3505,
      "Ġdeveloping": 3506,
      "Ġord": 3507,
      "acters": 3508,
      "Ġappl": 3509,
      "Ġstress": 3510,
      "ĠQu": 3511,
      "igen": 3512,
      "eters": 3513,
      "aves": 3514,
      "Ġnodded": 3515,
      "200": 3516,
      "ese": 3517,
      "Ġstatus": 3518,
      "Ġcareful": 3519,
      "Ġincludes": 3520,
      "Ġsignificantly": 3521,
      "Ġdocument": 3522,
      "Ġplatform": 3523,
      "Ġmyster": 3524,
      "Ġleaving": 3525,
      "Ġtast": 3526,
      "Ġcloser": 3527,
      "ĠGu": 3528,
      "Ġsurrounding": 3529,
      "By": 3530,
      "ustling": 3531,
      "Ġsociet": 3532,
      "ara": 3533,
      "key": 3534,
      "Ġbasic": 3535,
      "Ġallowed": 3536,
      "Ġang": 3537,
      "Ġindustry": 3538,
      "Ġdigital": 3539,
      "Ġincorporating": 3540,
      "bed": 3541,
      "ceed": 3542,
      "Ġcover": 3543,
      "Ġrecommended": 3544,
      "ĠNorth": 3545,
      "Ġrain": 3546,
      "Ġhot": 3547,
      "sec": 3548,
      "ĠCle": 3549,
      "ields": 3550,
      "AT": 3551,
      "Ġhandling": 3552,
      "ĠEnglish": 3553,
      "rehe": 3554,
      "ows": 3555,
      "idity": 3556,
      "ains": 3557,
      "Ġexpect": 3558,
      "Ġinteresting": 3559,
      "bon": 3560,
      "Ġreach": 3561,
      "otal": 3562,
      "anwhile": 3563,
      "Ġexch": 3564,
      "Ġful": 3565,
      "uries": 3566,
      "Ġimage": 3567,
      "Ġpd": 3568,
      "Ġmix": 3569,
      "ĊĠĠĠĠĠĠĠĠĠĠĠĠĠĠĠĠĠĠĠĠ": 3570,
      "oved": 3571,
      "Ġmonit": 3572,
      "Ġbad": 3573,
      "Ġplaces": 3574,
      ".)": 3575,
      "ĠFur": 3576,
      "isms": 3577,
      "hemat": 3578,
      "Ġreceived": 3579,
      "antly": 3580,
      "Ġembracing": 3581,
      "mod": 3582,
      "Ġfire": 3583,
      "iles": 3584,
      "dis": 3585,
      "ran": 3586,
      "Ġpeace": 3587,
      "pose": 3588,
      "ĠWell": 3589,
      "Ġnumerous": 3590,
      "Ġprocesses": 3591,
      "Ġfem": 3592,
      "ension": 3593,
      "Ġfast": 3594,
      "ourse": 3595,
      "Ġgames": 3596,
      "Ġherself": 3597,
      "Ġweeks": 3598,
      "Ġdynam": 3599,
      "Ġcorresp": 3600,
      "Ġsleep": 3601,
      "Ġyes": 3602,
      "ĠCal": 3603,
      "'m": 3604,
      "col": 3605,
      "vention": 3606,
      "Ġanyone": 3607,
      "Ġseeking": 3608,
      "istics": 3609,
      "frame": 3610,
      "TM": 3611,
      "Ġvill": 3612,
      "ĠMon": 3613,
      "Ġpsych": 3614,
      "Ġfresh": 3615,
      "Ġwhose": 3616,
      "Ġsud": 3617,
      "ilos": 3618,
      "(\"\\": 3619,
      "Ġindepend": 3620,
      "Ġ14": 3621,
      "ocks": 3622,
      "Ġconversation": 3623,
      "ĠOther": 3624,
      "csv": 3625,
      "urch": 3626,
      "Ġarrived": 3627,
      "hold": 3628,
      "Ġbustling": 3629,
      "Ġdate": 3630,
      "Ġdoctor": 3631,
      "Ġproduce": 3632,
      "Ġstructures": 3633,
      "Ġreligious": 3634,
      "Ġperspectives": 3635,
      "Ġinj": 3636,
      "iling": 3637,
      "Ġintric": 3638,
      "Ġconcepts": 3639,
      "ades": 3640,
      "Ġprote": 3641,
      "rie": 3642,
      "Ġopportunity": 3643,
      "artment": 3644,
      "Ġdistance": 3645,
      "count": 3646,
      "Ġsuff": 3647,
      "ĠRa": 3648,
      "dy": 3649,
      "Ġshows": 3650,
      "Ġremains": 3651,
      "Ġcausing": 3652,
      "ties": 3653,
      "ibilities": 3654,
      "Ġhidden": 3655,
      "Ġlines": 3656,
      "ĠSci": 3657,
      "order": 3658,
      "Ġterms": 3659,
      "mber": 3660,
      "ĠâĢĶ": 3661,
      "Ġconclusion": 3662,
      "Ġempathy": 3663,
      "ĠSm": 3664,
      "ĠEns": 3665,
      "Ġcharacters": 3666,
      "water": 3667,
      "Ġdad": 3668,
      "Ġalgorith": 3669,
      "iency": 3670,
      "Ġmeasures": 3671,
      "Ġwebs": 3672,
      "Ġinterests": 3673,
      "ĠAg": 3674,
      "Ġalone": 3675,
      "cop": 3676,
      "Ġgoal": 3677,
      "afety": 3678,
      "Ġstra": 3679,
      "Ġheat": 3680,
      "Ġperm": 3681,
      "Ġidentity": 3682,
      "ription": 3683,
      "Ġobjects": 3684,
      "Ġattempt": 3685,
      "Ġtransformed": 3686,
      "://": 3687,
      "oke": 3688,
      "ris": 3689,
      "Ġstri": 3690,
      "ĠTechn": 3691,
      "urrent": 3692,
      "unch": 3693,
      "Ġimag": 3694,
      "ĠArgs": 3695,
      "Ġwriting": 3696,
      "Ġ```": 3697,
      "Ġsou": 3698,
      "Ġdisapp": 3699,
      "Ġpret": 3700,
      "aff": 3701,
      "Ġpropos": 3702,
      "ronic": 3703,
      "Ġstates": 3704,
      "Ġschools": 3705,
      "icated": 3706,
      "Imagine": 3707,
      "Ġreasoning": 3708,
      "Ġir": 3709,
      "Ġbur": 3710,
      "Ġdive": 3711,
      "Ġreview": 3712,
      "Ġcarry": 3713,
      "apan": 3714,
      "Ġrob": 3715,
      "Ġresilience": 3716,
      "Ġbond": 3717,
      "ief": 3718,
      "Ġappreciate": 3719,
      "Ġpolicy": 3720,
      "Ġearlier": 3721,
      "Ġtiss": 3722,
      "Ġmere": 3723,
      "Ġdifferences": 3724,
      "Ġgenerations": 3725,
      "Ġ50": 3726,
      "yl": 3727,
      "Ġoffers": 3728,
      "Ġengaging": 3729,
      "Ġstandard": 3730,
      "Ġmother": 3731,
      "Ġlin": 3732,
      "Ġknowing": 3733,
      "Ġprior": 3734,
      "hern": 3735,
      "ĠJam": 3736,
      "Ġ<=": 3737,
      "Ġvib": 3738,
      "Ġinfluence": 3739,
      "Ġchemical": 3740,
      "iam": 3741,
      "Ġalmost": 3742,
      "su": 3743,
      "ulate": 3744,
      "user": 3745,
      "Ġcommit": 3746,
      "Ġbelong": 3747,
      "Ġmovement": 3748,
      "ae": 3749,
      "Ġbright": 3750,
      "ĠAcc": 3751,
      "Ġusage": 3752,
      "Ġniche": 3753,
      "Ġlaugh": 3754,
      "inst": 3755,
      "ĠSouth": 3756,
      "Ġnovel": 3757,
      "Ġprojects": 3758,
      "ĠCo": 3759,
      "entially": 3760,
      "ushing": 3761,
      "Ġpieces": 3762,
      "Ġgas": 3763,
      "ĠRec": 3764,
      "ilet": 3765,
      "Through": 3766,
      "Ġcomplete": 3767,
      "ometimes": 3768,
      "term": 3769,
      "Ġserve": 3770,
      "Ġinternational": 3771,
      "osis": 3772,
      "Ġ197": 3773,
      "Ġposition": 3774,
      "Ġsunny": 3775,
      "place": 3776,
      "ĠâĢĺ": 3777,
      "Ġinstit": 3778,
      "opped": 3779,
      "Ġdifference": 3780,
      "Ġasking": 3781,
      "resents": 3782,
      "bre": 3783,
      "Ġexpected": 3784,
      "ĠChapter": 3785,
      "Ġpic": 3786,
      "Ġdru": 3787,
      "Ġmount": 3788,
      "Ġadvice": 3789,
      "ĠInstead": 3790,
      "gar": 3791,
      "Ġseason": 3792,
      "Ġnothing": 3793,
      "Ġhelping": 3794,
      "ĠAust": 3795,
      "enses": 3796,
      "Ġagree": 3797,
      "ĊĊĠĠĠĠĠĠĠ": 3798,
      "anging": 3799,
      "Ġseries": 3800,
      "Ġiniti": 3801,
      "never": 3802,
      "ius": 3803,
      "ĠMia": 3804,
      "Ġamazing": 3805,
      "Ġtheory": 3806,
      "Ġjud": 3807,
      "Ġdefine": 3808,
      "Ġcaused": 3809,
      "mar": 3810,
      "Ġcitiz": 3811,
      "Ġequal": 3812,
      "ĠToday": 3813,
      "Ġdiagn": 3814,
      "Ġwrong": 3815,
      "Ġsea": 3816,
      "Ġliterature": 3817,
      "ales": 3818,
      "On": 3819,
      "Ġcivil": 3820,
      "ĠEnsure": 3821,
      "Ġmouth": 3822,
      "Ġexec": 3823,
      "Ġscared": 3824,
      "Ġexperts": 3825,
      "ĠProvide": 3826,
      "Ġfight": 3827,
      "Ġassess": 3828,
      "ĠCar": 3829,
      "60": 3830,
      "Ġdial": 3831,
      "Ġlegal": 3832,
      "Ġrepresents": 3833,
      "etime": 3834,
      "Ġinstruct": 3835,
      "Ġdiscussing": 3836,
      "Ġanimal": 3837,
      "itement": 3838,
      "Ġthoughts": 3839,
      "Ġdang": 3840,
      "amb": 3841,
      "Ġjoy": 3842,
      "Ġveget": 3843,
      "Build": 3844,
      "wide": 3845,
      "Ġforce": 3846,
      "Ġmaybe": 3847,
      "Ġgather": 3848,
      "Ġ(\"": 3849,
      "Ġlesson": 3850,
      "Ġnearby": 3851,
      "anc": 3852,
      "Ġcoming": 3853,
      "back": 3854,
      "Ġpage": 3855,
      "olving": 3856,
      "ĠJapan": 3857,
      "Ġplanning": 3858,
      "Ġrelevant": 3859,
      "Ġspecifically": 3860,
      "Ġchallenging": 3861,
      "Ġperhaps": 3862,
      "Ġkept": 3863,
      "Ġcomprehe": 3864,
      "Ġactive": 3865,
      "ĠCanad": 3866,
      "Ġimmediately": 3867,
      "Ġcolors": 3868,
      "Ġcultures": 3869,
      "rag": 3870,
      "hips": 3871,
      "plit": 3872,
      "ĠMany": 3873,
      "orders": 3874,
      "rows": 3875,
      "Ġtask": 3876,
      "Ġsetting": 3877,
      "Ġapplications": 3878,
      "plications": 3879,
      "Ġsess": 3880,
      "Ġapply": 3881,
      "Ġconstruct": 3882,
      "Ġice": 3883,
      "Ġtow": 3884,
      "Ġitem": 3885,
      "ĠDuring": 3886,
      "Ġrecently": 3887,
      "Ġwoman": 3888,
      "Ġstop": 3889,
      "ipment": 3890,
      "Ġeventually": 3891,
      "point": 3892,
      "Ġworry": 3893,
      "Ġtiny": 3894,
      "ounter": 3895,
      "ĠGreen": 3896,
      "Ġdamage": 3897,
      "ai": 3898,
      "ĠTogether": 3899,
      "Ġ25": 3900,
      "Ġtoys": 3901,
      "idge": 3902,
      "ĠDespite": 3903,
      "estern": 3904,
      "Ġwon": 3905,
      "aled": 3906,
      "Ġexcitement": 3907,
      "usive": 3908,
      "Ġfunctions": 3909,
      "Ġestablished": 3910,
      "Ġwalked": 3911,
      "ĠOut": 3912,
      "Ġstring": 3913,
      "Ġbirds": 3914,
      "ĠDetermine": 3915,
      "izes": 3916,
      "Ġarticle": 3917,
      "Ġbecomes": 3918,
      "ĠResearch": 3919,
      "Ġsus": 3920,
      "Ġbackground": 3921,
      "Ġlocation": 3922,
      "Ġargument": 3923,
      "NA": 3924,
      "uration": 3925,
      "Ġorganizations": 3926,
      "Ġpromoting": 3927,
      "Ġcry": 3928,
      "ivacy": 3929,
      "ky": 3930,
      "Ġthus": 3931,
      "Develop": 3932,
      "Ġdictionary": 3933,
      "Ġexpand": 3934,
      "Ġ--": 3935,
      "Ġ[\"": 3936,
      "orough": 3937,
      "ana": 3938,
      "ĠChristian": 3939,
      "Ġlots": 3940,
      "ĠFe": 3941,
      "Ġtrees": 3942,
      "ĠDep": 3943,
      "Ġoutcomes": 3944,
      "Lily": 3945,
      "Ġprofessionals": 3946,
      "Ġpoor": 3947,
      "Ġingred": 3948,
      "plays": 3949,
      "ederal": 3950,
      "Ġsounds": 3951,
      "Ġcomponents": 3952,
      "ĠKe": 3953,
      "Ġrisks": 3954,
      "Ġsignificance": 3955,
      "pret": 3956,
      "17": 3957,
      "Ġdemand": 3958,
      "Ġdirectly": 3959,
      "Ġroutine": 3960,
      "13": 3961,
      "document": 3962,
      "Ġimages": 3963,
      "Ġbott": 3964,
      "ĠSee": 3965,
      "Ġwalking": 3966,
      "Ġappreciation": 3967,
      "nds": 3968,
      "itect": 3969,
      "ĠState": 3970,
      "ength": 3971,
      "Ġdataframe": 3972,
      "Ġcraft": 3973,
      "Finally": 3974,
      "Ġsolution": 3975,
      "fficient": 3976,
      "Ġprimary": 3977,
      "Ġmeeting": 3978,
      "Ġhabit": 3979,
      "rs": 3980,
      "requ": 3981,
      "stood": 3982,
      "Ġfeet": 3983,
      "icip": 3984,
      "Ġliked": 3985,
      "Ġremained": 3986,
      "Ġep": 3987,
      "Ġourselves": 3988,
      "washing": 3989,
      "Ġconsequ": 3990,
      "vey": 3991,
      "Ġadop": 3992,
      "Ġoutline": 3993,
      "ĠInter": 3994,
      "yp": 3995,
      "ancy": 3996,
      "amm": 3997,
      "25": 3998,
      "Ġtoy": 3999,
      "Ġsituation": 4000,
      "Low": 4001,
      "ban": 4002,
      "uff": 4003,
      "Ġreturned": 4004,
      "Ġchoices": 4005,
      "Ġengage": 4006,
      "ĠMin": 4007,
      "zy": 4008,
      "ĠPlease": 4009,
      "osure": 4010,
      "Ġmanaged": 4011,
      "Ġmathemat": 4012,
      "Ġeffectively": 4013,
      "ĠMoreover": 4014,
      "Ġactual": 4015,
      "Ġdiscovery": 4016,
      "Ġeasily": 4017,
      "coh": 4018,
      "ĠMus": 4019,
      "Ġteach": 4020,
      "Ġmagn": 4021,
      "Ġdatas": 4022,
      "Ġsix": 4023,
      "],": 4024,
      "ĠAfrican": 4025,
      "Design": 4026,
      "ĠFurther": 4027,
      "icing": 4028,
      "Ġsevere": 4029,
      "eling": 4030,
      "ĠNe": 4031,
      "Ġpromote": 4032,
      "Ġtasks": 4033,
      "Ġeffort": 4034,
      "Ġserious": 4035,
      "Ġbeauty": 4036,
      "Ġsoftware": 4037,
      "Ġheavy": 4038,
      "Int": 4039,
      "Ġaddition": 4040,
      "Ġroad": 4041,
      "Ġmaxim": 4042,
      "Ġforces": 4043,
      "Ġalthough": 4044,
      "Ġvirt": 4045,
      "ferences": 4046,
      "aks": 4047,
      "Ġsection": 4048,
      "Ġexperienced": 4049,
      "Ġsmooth": 4050,
      "minist": 4051,
      "Ġincredible": 4052,
      "Ġrock": 4053,
      "Ġdeeply": 4054,
      "do": 4055,
      "--------------------------------": 4056,
      "rating": 4057,
      "ultural": 4058,
      "mosp": 4059,
      "itute": 4060,
      "Ġsect": 4061,
      "Ġseems": 4062,
      "Ġupdated": 4063,
      "Ġtim": 4064,
      "Ġopened": 4065,
      "Ġmorning": 4066,
      "Ġmachine": 4067,
      "gy": 4068,
      "Ġdou": 4069,
      "amples": 4070,
      "Ġspeed": 4071,
      "Ġpoll": 4072,
      "Ġartists": 4073,
      "type": 4074,
      "pass": 4075,
      "rench": 4076,
      "Ġvariable": 4077,
      "Ġorganization": 4078,
      "Ġtesting": 4079,
      "enn": 4080,
      "ette": 4081,
      "ĠEth": 4082,
      "Ġapproached": 4083,
      "Ġfigure": 4084,
      "Ġthous": 4085,
      "cean": 4086,
      "ĠPres": 4087,
      "Ġlimited": 4088,
      "documented": 4089,
      "Ġbase": 4090,
      "ĠArt": 4091,
      "Ġhost": 4092,
      ".\"\"\"": 4093,
      "Ġincluded": 4094,
      "Ġapproaches": 4095,
      "Ġadvoc": 4096,
      "Ġstructured": 4097,
      "AR": 4098,
      "ĠEduc": 4099,
      "Ġkn": 4100,
      "Ġrespond": 4101,
      "ĠImagine": 4102,
      "Ġenthusi": 4103,
      "Ġnose": 4104,
      "Ġsecret": 4105,
      "Ġlarger": 4106,
      "abilities": 4107,
      "ĠMom": 4108,
      "Ġseemingly": 4109,
      "igenous": 4110,
      "idents": 4111,
      "commented": 4112,
      "Ġdetermined": 4113,
      "Ġvia": 4114,
      "Ġentered": 4115,
      "Ġphilos": 4116,
      "rupt": 4117,
      "Ġmonth": 4118,
      "Ġwisdom": 4119,
      "Ġpack": 4120,
      "Ġdistinct": 4121,
      "Ġmeant": 4122,
      "encies": 4123,
      "Ġdro": 4124,
      "ilit": 4125,
      "Ġwaste": 4126,
      "Ġinvolve": 4127,
      "going": 4128,
      "Ġefficient": 4129,
      "rial": 4130,
      "fered": 4131,
      "Ġstronger": 4132,
      "Ġnetwork": 4133,
      "AN": 4134,
      "word": 4135,
      "Ġspaces": 4136,
      "Ġgoals": 4137,
      "Ġalongside": 4138,
      "Ġillust": 4139,
      "atively": 4140,
      "asts": 4141,
      "cles": 4142,
      "Ġlau": 4143,
      "Ġvict": 4144,
      "ĠPol": 4145,
      "athe": 4146,
      "Ġteaching": 4147,
      "Ġhealthcare": 4148,
      "fessor": 4149,
      "IT": 4150,
      "ups": 4151,
      "org": 4152,
      "Ġdelve": 4153,
      "Ġserved": 4154,
      "Ġelectric": 4155,
      "Ġgained": 4156,
      "Ġwhenever": 4157,
      "Ġlaws": 4158,
      "Ġexisting": 4159,
      "Create": 4160,
      "chol": 4161,
      "vert": 4162,
      "Ġpublished": 4163,
      "Ġcommunic": 4164,
      "Ġdiversity": 4165,
      "ĠMod": 4166,
      "Ġtraditions": 4167,
      "Ġcomplet": 4168,
      "Ġbirth": 4169,
      "Ġmentioned": 4170,
      "equ": 4171,
      "Ġcand": 4172,
      "Ġbodies": 4173,
      "Ġadding": 4174,
      "Ġcreativity": 4175,
      "Ġvideo": 4176,
      "Ġfindings": 4177,
      "Ġavoid": 4178,
      "Ġchoose": 4179,
      "Ġprice": 4180,
      "Ġtechnologies": 4181,
      "Ġdetermination": 4182,
      ".'": 4183,
      "Ġoffered": 4184,
      "Ġgiving": 4185,
      "Ġunf": 4186,
      "Ġtopics": 4187,
      "Ġpul": 4188,
      "Ġrapid": 4189,
      "Ġbelieved": 4190,
      "bl": 4191,
      "Ġfle": 4192,
      "Ġspot": 4193,
      "Ġassign": 4194,
      "Ġapplication": 4195,
      "Ġerror": 4196,
      "ĠPeople": 4197,
      "Ġultimately": 4198,
      "Ġjoin": 4199,
      "Ġsustainable": 4200,
      "ightly": 4201,
      "Ġjump": 4202,
      "Ġmodels": 4203,
      "ucle": 4204,
      "Ġpolicies": 4205,
      "Ġ13": 4206,
      "Ġju": 4207,
      "Ġshaping": 4208,
      "Ġproced": 4209,
      "Ġadjust": 4210,
      "Ġinvolving": 4211,
      "Ġsan": 4212,
      "Ġtoward": 4213,
      "andas": 4214,
      "ellig": 4215,
      "Ġden": 4216,
      "ibly": 4217,
      "Ġinstall": 4218,
      "arked": 4219,
      "Ġmilitary": 4220,
      "Ġalternative": 4221,
      "ufact": 4222,
      "Ġtool": 4223,
      "ĠPart": 4224,
      "Ġotherwise": 4225,
      "gged": 4226,
      "Ġrefer": 4227,
      "ĠTransform": 4228,
      "Ġdevices": 4229,
      "((": 4230,
      "iff": 4231,
      "ĠAv": 4232,
      "ipping": 4233,
      "Ġillness": 4234,
      "Ġmaster": 4235,
      "Ġfuel": 4236,
      "arian": 4237,
      "Ġmemory": 4238,
      "Ġmoving": 4239,
      "'.": 4240,
      "Ġmist": 4241,
      "ĠPat": 4242,
      "ĠHere": 4243,
      "Ġsolid": 4244,
      "Ġlimit": 4245,
      "Ġexercise": 4246,
      "cohol": 4247,
      "Ġbab": 4248,
      "Ġnation": 4249,
      "Ġlisten": 4250,
      "iant": 4251,
      "Ġlabor": 4252,
      "Ġprotection": 4253,
      "ees": 4254,
      "ĠFirst": 4255,
      "Ġcontains": 4256,
      "Ġtax": 4257,
      "anks": 4258,
      "ĠDo": 4259,
      "ĠGet": 4260,
      "Ġtrain": 4261,
      "Ġstrange": 4262,
      "Ġexciting": 4263,
      "Ġbusinesses": 4264,
      "ersonal": 4265,
      "opping": 4266,
      "Ġwide": 4267,
      "Ġcompanies": 4268,
      "ĠTitle": 4269,
      "Ġguidelines": 4270,
      "([": 4271,
      "athing": 4272,
      "Ġroll": 4273,
      "Ġlat": 4274,
      "Ġwashing": 4275,
      "ĠDevelop": 4276,
      "Ġdedicated": 4277,
      "Ġplays": 4278,
      "Ġqual": 4279,
      "Ġreality": 4280,
      "Ġmoments": 4281,
      "14": 4282,
      "Ġprop": 4283,
      "Ġdiscussion": 4284,
      "ĊĠĠĠĠĠĠĠĠĠĠĠĠĠĠĠĠĠĠĠ": 4285,
      "Ġlibrary": 4286,
      "itage": 4287,
      "Ġsoil": 4288,
      "Ġinitially": 4289,
      "Ġsequ": 4290,
      "Ġstudying": 4291,
      "Ġinnovative": 4292,
      "ĠUsing": 4293,
      "Ġcitizens": 4294,
      "Ġast": 4295,
      "Ġearth": 4296,
      "Why": 4297,
      "Ġcreative": 4298,
      "Write": 4299,
      "met": 4300,
      "gest": 4301,
      "Ġgradu": 4302,
      "Ġmagical": 4303,
      "Ġvast": 4304,
      "Ġofficial": 4305,
      "Ġwrite": 4306,
      "Ġbreath": 4307,
      ".\\": 4308,
      "Ġdoor": 4309,
      "ifying": 4310,
      "Åĵ": 4311,
      "ĠTw": 4312,
      "Ġunderstood": 4313,
      "Ġawareness": 4314,
      "Ġheight": 4315,
      "Ġrates": 4316,
      "Ġacadem": 4317,
      "asons": 4318,
      "cra": 4319,
      "ilarly": 4320,
      "Ġpan": 4321,
      "ĠJu": 4322,
      "Ġhabits": 4323,
      "Ġthanked": 4324,
      "Ġtransl": 4325,
      "ĠPrint": 4326,
      "Ġconditionally": 4327,
      "Ġtail": 4328,
      "Ġreact": 4329,
      "Ġexcl": 4330,
      "Re": 4331,
      "trust": 4332,
      "Ġwait": 4333,
      "Ġfaith": 4334,
      "Ġfront": 4335,
      "Ġthreshold": 4336,
      "Ġarchitect": 4337,
      "des": 4338,
      "Ġbecoming": 4339,
      "unction": 4340,
      "ĠRemember": 4341,
      "ĠJamie": 4342,
      "IV": 4343,
      "Ġsand": 4344,
      "uting": 4345,
      "Ġatmosp": 4346,
      "rem": 4347,
      "ĠLittle": 4348,
      "Ġclim": 4349,
      "ball": 4350,
      "Ġtrade": 4351,
      "Ġoffering": 4352,
      "Ġimproved": 4353,
      "Ġvit": 4354,
      "estic": 4355,
      "Ġfeelings": 4356,
      "Ġpossess": 4357,
      "useum": 4358,
      "Ġthorough": 4359,
      "Ġleave": 4360,
      "Ġprofound": 4361,
      "Ġcolumn": 4362,
      "Me": 4363,
      "uous": 4364,
      "ama": 4365,
      "Ġplot": 4366,
      "Ġhighlight": 4367,
      "Ġnegative": 4368,
      "Ġstrength": 4369,
      "ĠUnit": 4370,
      "Ġmessages": 4371,
      "Ġconversations": 4372,
      "year": 4373,
      "isp": 4374,
      "Ġequipment": 4375,
      "ault": 4376,
      "cil": 4377,
      "Ġcolon": 4378,
      "Ġcollective": 4379,
      "ĠSometimes": 4380,
      "ĠRuss": 4381,
      "Ġcollection": 4382,
      "ĠEmily": 4383,
      "Ġintricate": 4384,
      "Ġcore": 4385,
      "Ġcarbon": 4386,
      "uracy": 4387,
      "Ġrenew": 4388,
      "Ġchase": 4389,
      "ounds": 4390,
      "Ġteacher": 4391,
      "Ġcard": 4392,
      "ĠSchool": 4393,
      "Ġvital": 4394,
      "Ġadvance": 4395,
      "vest": 4396,
      "Ġsong": 4397,
      "Ġfields": 4398,
      "Ġcounter": 4399,
      "Ġintrig": 4400,
      "Ġstarting": 4401,
      "Ġguidance": 4402,
      "Ġfamous": 4403,
      "Ġplanet": 4404,
      "Ġtour": 4405,
      "isf": 4406,
      "cipl": 4407,
      "Ġ2012": 4408,
      "ĠJewish": 4409,
      "Ġwid": 4410,
      "Ġformed": 4411,
      "Ġfrequency": 4412,
      "pert": 4413,
      "Ġfat": 4414,
      "Ġchance": 4415,
      "bing": 4416,
      "iance": 4417,
      "ĠFrench": 4418,
      "Ġpicture": 4419,
      "Ġriver": 4420,
      "Ġfell": 4421,
      "ĠData": 4422,
      "Ġconditional": 4423,
      "cont": 4424,
      "Ġsaying": 4425,
      "Ġnarrat": 4426,
      "Ġ,": 4427,
      "Ġbed": 4428,
      "onsibility": 4429,
      "pat": 4430,
      "Ġmov": 4431,
      "Ġreaders": 4432,
      "Ġfr": 4433,
      "Ġjustice": 4434,
      "Ġcenter": 4435,
      "lower": 4436,
      "Ġgrew": 4437,
      "Ġcountless": 4438,
      "overn": 4439,
      "Ġprivate": 4440,
      "Ġincreasingly": 4441,
      "Ġtwist": 4442,
      "Ġear": 4443,
      "inate": 4444,
      "Ġbuy": 4445,
      "ourage": 4446,
      "ĠRaises": 4447,
      "\"\\": 4448,
      "wash": 4449,
      "Ġ40": 4450,
      "Ġchanging": 4451,
      "Ġcapital": 4452,
      "Ġten": 4453,
      "hest": 4454,
      "Ġbill": 4455,
      "Ġ11": 4456,
      "aur": 4457,
      "eria": 4458,
      "airs": 4459,
      "ĠFurthermore": 4460,
      "Ġaren": 4461,
      "Ġcosts": 4462,
      "Ġemotions": 4463,
      "Ġrule": 4464,
      "High": 4465,
      "ont": 4466,
      "Ġexploration": 4467,
      "Ġinspired": 4468,
      "Ġdescribed": 4469,
      "IS": 4470,
      "uman": 4471,
      "Ġsche": 4472,
      "ĠSocial": 4473,
      "True": 4474,
      "ĠBritish": 4475,
      "Cl": 4476,
      "Ġguide": 4477,
      "Ġexpression": 4478,
      "Ġox": 4479,
      "Ġhes": 4480,
      "Ġrare": 4481,
      "Ġinnovation": 4482,
      "Ġfix": 4483,
      "Ġanx": 4484,
      "Ġload": 4485,
      "Ġadvanced": 4486,
      "Ġoption": 4487,
      "istry": 4488,
      "Ġsmaller": 4489,
      "Ġdialog": 4490,
      "ĠCor": 4491,
      "Ġsave": 4492,
      "Ġaccur": 4493,
      "Ġrequirements": 4494,
      "Ġcast": 4495,
      "Ġtruth": 4496,
      "Ġopin": 4497,
      "ingu": 4498,
      "aint": 4499,
      "Ġfeature": 4500,
      "Ġtherapy": 4501,
      "Ġlack": 4502,
      "Ġvac": 4503,
      "Ġsmile": 4504,
      "Ġkeeping": 4505,
      "From": 4506,
      "Ġinputs": 4507,
      "Ġaddressing": 4508,
      "Have": 4509,
      "akers": 4510,
      "Ġacqu": 4511,
      "Ġwaiting": 4512,
      "Ġpen": 4513,
      "ĠSuddenly": 4514,
      "Ġquant": 4515,
      "ĠAnt": 4516,
      "ĠChina": 4517,
      "Ġflowers": 4518,
      "Ġdefin": 4519,
      "Ġautom": 4520,
      "ĠLucy": 4521,
      "Well": 4522,
      "ĠCount": 4523,
      "Ġfocused": 4524,
      "Ġgently": 4525,
      "Ġexposure": 4526,
      "Do": 4527,
      "Ġlooks": 4528,
      "Ġsort": 4529,
      "Ġpet": 4530,
      "Ġfram": 4531,
      "Ġeating": 4532,
      "Ġwash": 4533,
      "iration": 4534,
      "Ġdead": 4535,
      "ĠDav": 4536,
      "Ġvibrant": 4537,
      "uses": 4538,
      "ulture": 4539,
      "ipped": 4540,
      "Ġveh": 4541,
      "cular": 4542,
      "rew": 4543,
      "ĠAc": 4544,
      "aming": 4545,
      "Ġwatch": 4546,
      "21": 4547,
      "noon": 4548,
      "Ġstood": 4549,
      "Ġclin": 4550,
      "ĠKing": 4551,
      "iers": 4552,
      "Ġdental": 4553,
      "ĠGo": 4554,
      "pson": 4555,
      "gram": 4556,
      "Ġexperiment": 4557,
      "Ġmoist": 4558,
      "Ġwondered": 4559,
      "Ġattract": 4560,
      "step": 4561,
      "Ġsports": 4562,
      "Ġresulting": 4563,
      "80": 4564,
      "RE": 4565,
      "Ġstage": 4566,
      "Ġevolution": 4567,
      "Ġprepared": 4568,
      "Ġdataset": 4569,
      "hab": 4570,
      "Ġnest": 4571,
      "Ġmeaningful": 4572,
      "Ġsac": 4573,
      "Ġcred": 4574,
      "Ġcough": 4575,
      "Ġhyd": 4576,
      "Ġolder": 4577,
      "Ġ+=": 4578,
      "train": 4579,
      "Ġbeginning": 4580,
      "Ġmanufact": 4581,
      "Ġrefers": 4582,
      "Ġresponses": 4583,
      "Ġunus": 4584,
      "ressed": 4585,
      "Ġcreatures": 4586,
      "Ġreducing": 4587,
      "ĠÃ¢": 4588,
      "Ġbud": 4589,
      "ĠComp": 4590,
      "ino": 4591,
      "ĠResp": 4592,
      "Ġoperations": 4593,
      "Ġcorresponding": 4594,
      "athered": 4595,
      "40": 4596,
      "Ġhear": 4597,
      "Ġconcent": 4598,
      "abric": 4599,
      "ensions": 4600,
      "Ġslowly": 4601,
      "ĠEuropean": 4602,
      "Ġbatt": 4603,
      "Ġingredients": 4604,
      "Ġindeed": 4605,
      "Ġbenefit": 4606,
      "Ġreported": 4607,
      "Ġtrip": 4608,
      "Ġcaught": 4609,
      "Ġworth": 4610,
      "Ġrace": 4611,
      "Ġpurch": 4612,
      "Ġcauses": 4613,
      "Ġahead": 4614,
      "Ġinterpret": 4615,
      "Ġlies": 4616,
      "ĊĠĠĠĠĊĠĠĠĠ": 4617,
      "Ġchecks": 4618,
      "Ġexamples": 4619,
      "Ġutil": 4620,
      "ech": 4621,
      "Ġestablish": 4622,
      "Ġsituations": 4623,
      "ĠAre": 4624,
      "Ġongoing": 4625,
      "ĠGl": 4626,
      "Ġteeth": 4627,
      "Ġesc": 4628,
      "Ġconsequences": 4629,
      "Ġsexual": 4630,
      "Ġpow": 4631,
      "ĠII": 4632,
      "Ġfriendly": 4633,
      "transparency": 4634,
      "umber": 4635,
      "Ġplans": 4636,
      "Ġadults": 4637,
      "cknow": 4638,
      "Ġstandards": 4639,
      "Ġnarratives": 4640,
      "no": 4641,
      "ero": 4642,
      "Ġthird": 4643,
      "Ġmember": 4644,
      "Ġencount": 4645,
      "Ġtests": 4646,
      "Ġcourt": 4647,
      "Ġrecords": 4648,
      "rief": 4649,
      "Ġweak": 4650,
      "Ġproperty": 4651,
      "Ġdiseases": 4652,
      "tra": 4653,
      "Ġwise": 4654,
      "Ġmission": 4655,
      "Ġ196": 4656,
      "Ġhappen": 4657,
      "Ġafternoon": 4658,
      "lessly": 4659,
      "Ġdevice": 4660,
      "ormal": 4661,
      "lowing": 4662,
      "ĠAdd": 4663,
      "Ġwalk": 4664,
      "then": 4665,
      "Â°": 4666,
      "onic": 4667,
      "Ġreliable": 4668,
      "Ġworkers": 4669,
      "Ġadvant": 4670,
      "`,": 4671,
      "Ġdin": 4672,
      "abet": 4673,
      "Ġcreation": 4674,
      "Ġleaves": 4675,
      "Ġegg": 4676,
      "Ġsigns": 4677,
      "Ġconsidering": 4678,
      "Ġexcess": 4679,
      "ĠBoth": 4680,
      "ĠUpdate": 4681,
      "Ġneighbor": 4682,
      "ĠScience": 4683,
      "16": 4684,
      "Pro": 4685,
      "ha": 4686,
      "sect": 4687,
      "Ġworldwide": 4688,
      "Anne": 4689,
      "ager": 4690,
      "roduct": 4691,
      "Ġeducational": 4692,
      "Ġlanguages": 4693,
      "off": 4694,
      "ivating": 4695,
      "Ġcompass": 4696,
      "acity": 4697,
      "Ġseek": 4698,
      "ttp": 4699,
      "Ġmicro": 4700,
      "orage": 4701,
      "Ġmath": 4702,
      "Ġthemes": 4703,
      "Ġproduced": 4704,
      "Ġdiscussions": 4705,
      "ĠCenter": 4706,
      "EN": 4707,
      "Ġign": 4708,
      "Ġdoll": 4709,
      "Ġnp": 4710,
      "Ġpartners": 4711,
      "Ġboard": 4712,
      "www": 4713,
      "ghed": 4714,
      "Ġbeliefs": 4715,
      "Ġwatched": 4716,
      "found": 4717,
      "Ġnucle": 4718,
      "list": 4719,
      "Ġunity": 4720,
      "Ġaffected": 4721,
      "Ġcomprehens": 4722,
      "Ġvir": 4723,
      "Ġmanage": 4724,
      "Ġfoster": 4725,
      "Ġemotional": 4726,
      "Ġenhance": 4727,
      "bra": 4728,
      "osen": 4729,
      "Ġtrack": 4730,
      "Ġproperly": 4731,
      "Ġexamine": 4732,
      "Ġmovements": 4733,
      "ĠCommun": 4734,
      "son": 4735,
      "ament": 4736,
      "Ġmole": 4737,
      "Ġseparate": 4738,
      "ĠAustral": 4739,
      "Un": 4740,
      "Ġsold": 4741,
      "ĠRob": 4742,
      "ception": 4743,
      "Ġexamining": 4744,
      "omy": 4745,
      "ĠHygiene": 4746,
      "Ġconnected": 4747,
      "Ġwebsite": 4748,
      "ĠFin": 4749,
      "Ġmoved": 4750,
      "Ġfrequently": 4751,
      "otic": 4752,
      "Ġroles": 4753,
      "ĠThompson": 4754,
      "yes": 4755,
      "iveness": 4756,
      "being": 4757,
      "Ġintroduced": 4758,
      "Ġdelicious": 4759,
      "Ad": 4760,
      "book": 4761,
      "roup": 4762,
      "ummy": 4763,
      "undred": 4764,
      "Ġpictures": 4765,
      "ĠCity": 4766,
      "Ġcircum": 4767,
      "Ġinstructions": 4768,
      "Tim": 4769,
      "Ġfoods": 4770,
      "Ġhun": 4771,
      "ivate": 4772,
      "Ġencounter": 4773,
      "ek": 4774,
      "ĠRead": 4775,
      "Ġ60": 4776,
      "Ġfully": 4777,
      "pred": 4778,
      "lev": 4779,
      "Ġhappens": 4780,
      "Ġboundaries": 4781,
      "ĠInternational": 4782,
      "Ġschol": 4783,
      "olved": 4784,
      "Ġvent": 4785,
      "ressive": 4786,
      "alt": 4787,
      "Ġfit": 4788,
      "Ġsugar": 4789,
      "ĠWhe": 4790,
      "Ġmommy": 4791,
      "Ġencourage": 4792,
      "ĠEducation": 4793,
      "Ġacknow": 4794,
      "Ġsupply": 4795,
      "Ġod": 4796,
      "Ġ2010": 4797,
      "`.": 4798,
      "rics": 4799,
      "inations": 4800,
      "Ġfather": 4801,
      "ams": 4802,
      "Ġreceive": 4803,
      "Ġsocietal": 4804,
      "ĠKeep": 4805,
      "Ġchanged": 4806,
      "craft": 4807,
      "ternal": 4808,
      "Ġsatisf": 4809,
      "Ġdecl": 4810,
      "AC": 4811,
      "Ġ\"))": 4812,
      "Ġdefined": 4813,
      "Ġdetermines": 4814,
      "Ġdim": 4815,
      "Ġhosp": 4816,
      "ĠGra": 4817,
      "Ġblock": 4818,
      "Ġknows": 4819,
      "rict": 4820,
      "Ġaimed": 4821,
      "Ġoffice": 4822,
      "Ġnames": 4823,
      "Ġlandscape": 4824,
      "oop": 4825,
      "Ġcentral": 4826,
      "works": 4827,
      "Ġsole": 4828,
      "Alice": 4829,
      "ok": 4830,
      "ĠIts": 4831,
      "Ġmiddle": 4832,
      "Ġmutual": 4833,
      "instance": 4834,
      "Ġgraph": 4835,
      "Ġpretty": 4836,
      "ype": 4837,
      "Ġphen": 4838,
      "Ġdecre": 4839,
      "Ġinstru": 4840,
      "Ġder": 4841,
      "Ġintellig": 4842,
      "Ġcontroll": 4843,
      "Ġteachers": 4844,
      "Ġfing": 4845,
      "Ġconstit": 4846,
      "Ġcod": 4847,
      "check": 4848,
      "Ġfamiliar": 4849,
      "rative": 4850,
      "Ġbutter": 4851,
      "ĠBenny": 4852,
      "Ġlaughed": 4853,
      "ĠWest": 4854,
      "Ġnote": 4855,
      "Ġnoise": 4856,
      "Ġgets": 4857,
      "Ġfreed": 4858,
      "Ġtrib": 4859,
      "Ġmanaging": 4860,
      "Ġcatch": 4861,
      "Ġsets": 4862,
      "Ġmedicine": 4863,
      "She": 4864,
      "Ġreduced": 4865,
      "ĠIndian": 4866,
      "Ġbrother": 4867,
      "ĠAccording": 4868,
      "Ġunusual": 4869,
      "ĠExpl": 4870,
      "ĠMaya": 4871,
      "Ġsweet": 4872,
      "ĠJan": 4873,
      "Ġagric": 4874,
      "rote": 4875,
      "ĠWill": 4876,
      "Ġraised": 4877,
      "icism": 4878,
      "ĠProm": 4879,
      "osition": 4880,
      "ĠInput": 4881,
      "Ġcompletely": 4882,
      "unately": 4883,
      "Ġcontrast": 4884,
      "ĠAnna": 4885,
      "Ġbrave": 4886,
      "ĠCalif": 4887,
      "orial": 4888,
      "ĠSystem": 4889,
      "flo": 4890,
      "Ġauthors": 4891,
      "Ġphilosoph": 4892,
      "hent": 4893,
      "Ġbow": 4894,
      "Ġmatters": 4895,
      "Ġsuddenly": 4896,
      "enty": 4897,
      "ĠMet": 4898,
      "weight": 4899,
      "Ġparty": 4900,
      "Ġfunctionality": 4901,
      "Ġgenetic": 4902,
      "oly": 4903,
      "illy": 4904,
      "ĊĠĠĠĠĠĠĠĠĠĠĠĠĊĠĠĠ": 4905,
      "Ġglass": 4906,
      "Ġpopulations": 4907,
      "Ġfly": 4908,
      "udd": 4909,
      "Ġgoes": 4910,
      "Ġdetect": 4911,
      "__':": 4912,
      "Ġnavigate": 4913,
      "Ġtissue": 4914,
      "orge": 4915,
      "Ġcoord": 4916,
      "Ġclosely": 4917,
      "Ġlayer": 4918,
      "Ġapplied": 4919,
      "Ġhous": 4920,
      "Ġassum": 4921,
      "Ġpurpose": 4922,
      "ĠReddit": 4923,
      "Com": 4924,
      "LE": 4925,
      "liness": 4926,
      "Ġforg": 4927,
      "Ġfacilit": 4928,
      "ĠPress": 4929,
      "Ġtalking": 4930,
      "'d": 4931,
      "uary": 4932,
      "icity": 4933,
      "ĠSafety": 4934,
      "ĠAss": 4935,
      "ĠAmong": 4936,
      "Ġbul": 4937,
      "Ġbacter": 4938,
      "Ġrepe": 4939,
      "ĠWashing": 4940,
      "elled": 4941,
      "Ġtypically": 4942,
      "Ġshown": 4943,
      "Ġdepend": 4944,
      "Ġregularly": 4945,
      "Ġupdates": 4946,
      "Ġtraffic": 4947,
      "issions": 4948,
      "Ġpresented": 4949,
      "Ġtouch": 4950,
      "Ġpreserving": 4951,
      "fit": 4952,
      "ĠGree": 4953,
      "Ġobst": 4954,
      "Ġanswers": 4955,
      "Ġstopped": 4956,
      "ĠInit": 4957,
      "Ġ2011": 4958,
      "Ġsummer": 4959,
      "Ġ}": 4960,
      "Ġgathered": 4961,
      "ĠMark": 4962,
      "aving": 4963,
      "Ġcommand": 4964,
      "Ġalgorithm": 4965,
      "mi": 4966,
      "Ġburn": 4967,
      "ĠFood": 4968,
      "Ġinfluen": 4969,
      "loc": 4970,
      "These": 4971,
      "Ġgrab": 4972,
      "vironments": 4973,
      "Ġcriteria": 4974,
      "Ġappeared": 4975,
      "PI": 4976,
      "ffect": 4977,
      "Ġversion": 4978,
      "Ġdoc": 4979,
      "ĠSur": 4980,
      "Ġfocusing": 4981,
      "ĠDon": 4982,
      "Ġindex": 4983,
      "Ġpotentially": 4984,
      "Ġresource": 4985,
      "Ġcommer": 4986,
      "Ġengagement": 4987,
      "ornia": 4988,
      "Ġwarn": 4989,
      "Ġweb": 4990,
      "Ġbran": 4991,
      "Ġlength": 4992,
      "ĠWho": 4993,
      "While": 4994,
      "Ġcustomer": 4995,
      "Ġminimum": 4996,
      "itc": 4997,
      "Conclusion": 4998,
      "atur": 4999,
      "Ġ'__": 5000,
      "Ġprocessing": 5001,
      "ĠSimilarly": 5002,
      "Ġhundred": 5003,
      "Ġisinstance": 5004,
      "raw": 5005,
      "ĠGreat": 5006,
      "Ġblocks": 5007,
      "Ġsolar": 5008,
      "Ġproperties": 5009,
      "aign": 5010,
      "Ġtall": 5011,
      "que": 5012,
      "Ġstanding": 5013,
      "Ġbehavi": 5014,
      "board": 5015,
      "ulated": 5016,
      "ĠJohns": 5017,
      "Ġcompassion": 5018,
      "ctors": 5019,
      "ordinary": 5020,
      "Ġfaster": 5021,
      "Ġrecommendations": 5022,
      "Ġmiles": 5023,
      "cover": 5024,
      "ml": 5025,
      "Ġscreen": 5026,
      "anged": 5027,
      "Throughout": 5028,
      "!\")": 5029,
      "Ġtransm": 5030,
      "Ġmedium": 5031,
      "Ġthousands": 5032,
      "Ġalcohol": 5033,
      "unte": 5034,
      "acked": 5035,
      "Ġgenu": 5036,
      "Ġfacing": 5037,
      "OR": 5038,
      "ĠMa": 5039,
      "ecause": 5040,
      "force": 5041,
      "Ġpuzz": 5042,
      "load": 5043,
      "dule": 5044,
      "ĠDisplay": 5045,
      "ĠMaria": 5046,
      "Ġplatforms": 5047,
      "ED": 5048,
      "tered": 5049,
      "erve": 5050,
      "Ġearn": 5051,
      "urance": 5052,
      "ĠTrust": 5053,
      "ĠIndia": 5054,
      "Ġselected": 5055,
      "Ġsoap": 5056,
      "ocol": 5057,
      "Ġroot": 5058,
      "Ġcoast": 5059,
      "Ġtur": 5060,
      "Ġconv": 5061,
      "Ġwouldn": 5062,
      "Ġcapable": 5063,
      "ĠSy": 5064,
      "ĠSally": 5065,
      "Ġshif": 5066,
      "First": 5067,
      "gra": 5068,
      "rest": 5069,
      "atus": 5070,
      "Ġenvironments": 5071,
      "Ġresistance": 5072,
      "Ġpersist": 5073,
      "Ġexhib": 5074,
      "Ġrequest": 5075,
      "Ġinformed": 5076,
      "].": 5077,
      "orry": 5078,
      "ĠTime": 5079,
      "Ġphone": 5080,
      "Ġanalyze": 5081,
      "Ġadminist": 5082,
      "Ġpaint": 5083,
      "heart": 5084,
      "Ġnotice": 5085,
      "Ġ24": 5086,
      "Ġeasier": 5087,
      "Ġhomes": 5088,
      "Ġfemale": 5089,
      "Ġmaximum": 5090,
      "Ġpatience": 5091,
      "Ġproposed": 5092,
      "ĠPresident": 5093,
      "lam": 5094,
      "(\"*": 5095,
      "Ġthanks": 5096,
      "gery": 5097,
      "Ġdistribution": 5098,
      "=\"": 5099,
      "dict": 5100,
      "Ġwrote": 5101,
      "olly": 5102,
      "Ġforget": 5103,
      "with": 5104,
      "arity": 5105,
      "Ġwatching": 5106,
      "ene": 5107,
      "Ġhit": 5108,
      "Ġhar": 5109,
      "ĠPa": 5110,
      "ĠPark": 5111,
      "ĠLife": 5112,
      "Ġlibraries": 5113,
      "ares": 5114,
      "learn": 5115,
      "Ġstars": 5116,
      "Ġ2008": 5117,
      "appy": 5118,
      "Ġalike": 5119,
      "Ġstorm": 5120,
      "ĠLaw": 5121,
      "ellect": 5122,
      "Ġpros": 5123,
      "ĠMid": 5124,
      "ĠRiver": 5125,
      "Ġcircumst": 5126,
      "23": 5127,
      "OU": 5128,
      "gn": 5129,
      "Ġske": 5130,
      "Ġpresence": 5131,
      "Ġlad": 5132,
      "imming": 5133,
      "ĠHave": 5134,
      "ventional": 5135,
      "Ġestim": 5136,
      "}\")": 5137,
      "Ġtrou": 5138,
      "Ġcong": 5139,
      "ffee": 5140,
      "Ġwitness": 5141,
      "asure": 5142,
      "ores": 5143,
      "ĠBo": 5144,
      "rix": 5145,
      "Ġvision": 5146,
      "Ġhyp": 5147,
      "Ġprobably": 5148,
      "lim": 5149,
      "Ġgold": 5150,
      "Ġstyle": 5151,
      "Ġcompl": 5152,
      "ĠBased": 5153,
      "ope": 5154,
      "ĠProgram": 5155,
      "clud": 5156,
      "Ġstraight": 5157,
      "lean": 5158,
      "Ġloud": 5159,
      "rael": 5160,
      "append": 5161,
      "lands": 5162,
      "Ġextraordinary": 5163,
      "Ġpicked": 5164,
      "yles": 5165,
      "Ġfigures": 5166,
      "whel": 5167,
      "ula": 5168,
      "ĠCong": 5169,
      "Ġheritage": 5170,
      "Ġconsult": 5171,
      "Ġoccas": 5172,
      "ĠMedic": 5173,
      "Ġnewfound": 5174,
      "Ġphenomen": 5175,
      ",'": 5176,
      "My": 5177,
      "inated": 5178,
      "alle": 5179,
      "Ġgent": 5180,
      "Another": 5181,
      "Ġengineers": 5182,
      "ĠCalifornia": 5183,
      "tle": 5184,
      "tical": 5185,
      "Ġvariety": 5186,
      "Ġsites": 5187,
      "Ġcities": 5188,
      "Ġthread": 5189,
      "Ġplaced": 5190,
      "Ġgrass": 5191,
      "Ġrecommendation": 5192,
      "Ġemerged": 5193,
      "Ġspiritual": 5194,
      "IC": 5195,
      "ĠOb": 5196,
      "Ġassist": 5197,
      "Ġgenerally": 5198,
      "Ġlayers": 5199,
      "Ġprotein": 5200,
      "bal": 5201,
      "Ġocean": 5202,
      "ĠHistory": 5203,
      "gypt": 5204,
      "Ġsnee": 5205,
      "Ġhighly": 5206,
      "Ġstrengthen": 5207,
      "Ġprefer": 5208,
      "isl": 5209,
      "Ġlocated": 5210,
      "ĠImport": 5211,
      "Ġvary": 5212,
      "Ġaccuracy": 5213,
      "Ġcombined": 5214,
      "ĠMaybe": 5215,
      "Ġexpertise": 5216,
      "Ġpond": 5217,
      "Ġevening": 5218,
      "Ġtend": 5219,
      "Ġcook": 5220,
      "Ġfederal": 5221,
      "Ġlen": 5222,
      "ĠSince": 5223,
      "Ġking": 5224,
      "Ġstar": 5225,
      "ĠAng": 5226,
      "PA": 5227,
      "Please": 5228,
      "lor": 5229,
      "Ġaim": 5230,
      "ĠWater": 5231,
      "ĠGovern": 5232,
      "Ġconservation": 5233,
      "ĠChild": 5234,
      "ĠInstitute": 5235,
      "temp": 5236,
      "hetic": 5237,
      "Ġunivers": 5238,
      "Us": 5239,
      "dent": 5240,
      "oyal": 5241,
      "Ġbroader": 5242,
      "ĠCanada": 5243,
      "Sh": 5244,
      "exic": 5245,
      "Ġtemper": 5246,
      "Ġdrawing": 5247,
      "float": 5248,
      "can": 5249,
      "amental": 5250,
      "Ġhearing": 5251,
      "Ġtradition": 5252,
      "Ġdesired": 5253,
      "inese": 5254,
      "vis": 5255,
      "Ġconstruction": 5256,
      "Ġforeign": 5257,
      "ĠMost": 5258,
      "ushed": 5259,
      "---": 5260,
      "Ġsecure": 5261,
      "Ġslightly": 5262,
      "Ġtexts": 5263,
      "Ġeight": 5264,
      "orrow": 5265,
      "Ġlistened": 5266,
      "Ġtopic": 5267,
      "Ġvillage": 5268,
      "ĠDepartment": 5269,
      "Med": 5270,
      "gender": 5271,
      "Ġcrow": 5272,
      "ĠSan": 5273,
      "Ġserves": 5274,
      "Ġdeliver": 5275,
      "Ġperspective": 5276,
      "Ġhesit": 5277,
      "len": 5278,
      "osystem": 5279,
      "ohn": 5280,
      "uk": 5281,
      "Ġflex": 5282,
      "uls": 5283,
      "Ġmatch": 5284,
      "Ġ2007": 5285,
      "Ġrepresenting": 5286,
      "Ġstruck": 5287,
      "Ġfiction": 5288,
      "Ġdrin": 5289,
      "Ġhurt": 5290,
      "Ġengineering": 5291,
      "Ġfib": 5292,
      "ĠJour": 5293,
      "Ġrh": 5294,
      "Ġobtain": 5295,
      "Ġimproving": 5296,
      "Ġobserved": 5297,
      "Ġplease": 5298,
      "Just": 5299,
      "cest": 5300,
      "Ġreasons": 5301,
      "ĠJane": 5302,
      "ensity": 5303,
      "Ġextract": 5304,
      "Ġreminded": 5305,
      "Ġatmosphere": 5306,
      ");": 5307,
      "75": 5308,
      "Next": 5309,
      "Ġfruit": 5310,
      "Ġexists": 5311,
      "ĠEnc": 5312,
      "Ġcustomers": 5313,
      "ĠAfrica": 5314,
      "Ġacademic": 5315,
      "ham": 5316,
      "Ġcher": 5317,
      "Ġpick": 5318,
      "Ġemail": 5319,
      "ĠChar": 5320,
      "Ġfactor": 5321,
      "Ġdiscrim": 5322,
      "Ġshowing": 5323,
      "Ġoccup": 5324,
      "Ġcommitment": 5325,
      "AL": 5326,
      "Ġrein": 5327,
      "rip": 5328,
      "Ġcoffee": 5329,
      "Ġbaby": 5330,
      "ĠJes": 5331,
      "Ġmap": 5332,
      "Ġformer": 5333,
      "Ġrecognized": 5334,
      "abetes": 5335,
      "Ġnearly": 5336,
      "ĠEgypt": 5337,
      "Ġspecified": 5338,
      "Ġcampaign": 5339,
      "Is": 5340,
      "ĠAug": 5341,
      "oses": 5342,
      "Ġchosen": 5343,
      "ĠYet": 5344,
      "Ġrepresentation": 5345,
      "Ġwaters": 5346,
      "Ġclothes": 5347,
      "Ġregions": 5348,
      "iquette": 5349,
      "Ġpractical": 5350,
      "Ġturns": 5351,
      "Ġelement": 5352,
      "ĠPlan": 5353,
      "Ġwindow": 5354,
      "Ġcars": 5355,
      "asp": 5356,
      "Ġhol": 5357,
      "Ġseeing": 5358,
      "oom": 5359,
      "Ġdance": 5360,
      "Ġdram": 5361,
      "iments": 5362,
      "Ġmob": 5363,
      "Ġtox": 5364,
      "Ġbeloved": 5365,
      "py": 5366,
      "Ġbag": 5367,
      "ĠSw": 5368,
      "ĠCourse": 5369,
      "Ġappears": 5370,
      "Ġinstitutions": 5371,
      "Ġwet": 5372,
      "Ġvul": 5373,
      "Ġleads": 5374,
      "Ġcenturies": 5375,
      "Ġsuppl": 5376,
      "Ġfilm": 5377,
      "Ġhighest": 5378,
      "Ġmonitoring": 5379,
      "Ġwear": 5380,
      "Ġincome": 5381,
      "Ġhumidity": 5382,
      "Ġmemories": 5383,
      "ĠJohnson": 5384,
      "]:": 5385,
      "rab": 5386,
      "Ġsettings": 5387,
      "ellent": 5388,
      "ĠNone": 5389,
      "Ġcircumstances": 5390,
      "ĠMarch": 5391,
      "Ġentry": 5392,
      "Ġjoined": 5393,
      "Ġabsor": 5394,
      "Ġcooking": 5395,
      "ĠCur": 5396,
      "ĠIsrael": 5397,
      "Ġsymbol": 5398,
      "Ġsem": 5399,
      "era": 5400,
      "ented": 5401,
      "Ġwonderful": 5402,
      "cast": 5403,
      "emb": 5404,
      "Ġuseful": 5405,
      "arsh": 5406,
      "Ġturning": 5407,
      "Ġconsumption": 5408,
      "Ġdemonstrated": 5409,
      "Ġcollege": 5410,
      "Ar": 5411,
      "Ġmel": 5412,
      "Over": 5413,
      "face": 5414,
      "ĠLear": 5415,
      "Despite": 5416,
      "Ġlatest": 5417,
      "eath": 5418,
      "pan": 5419,
      "health": 5420,
      "Ġcro": 5421,
      "Ġborn": 5422,
      "icians": 5423,
      "Ġdisappoint": 5424,
      "herent": 5425,
      "rees": 5426,
      "ĠCO": 5427,
      "ĠJake": 5428,
      "Ġorganized": 5429,
      "Ġflew": 5430,
      "part": 5431,
      "Ġfabric": 5432,
      "Ġposit": 5433,
      "Ġsuccessfully": 5434,
      "Ġgentle": 5435,
      "Ġimplications": 5436,
      "ĠMeanwhile": 5437,
      "Ġstaff": 5438,
      "Ġauthent": 5439,
      "Ġjournal": 5440,
      "iat": 5441,
      "Ġwaves": 5442,
      "Ġletter": 5443,
      "Ġcorner": 5444,
      "Ġgenerate": 5445,
      "Ġtransportation": 5446,
      "orical": 5447,
      "Ġgives": 5448,
      "verse": 5449,
      "ĠMain": 5450,
      "ĠChinese": 5451,
      "ĠExample": 5452,
      "Ġfalls": 5453,
      "ica": 5454,
      "Ġaccordingly": 5455,
      "Ġrevealed": 5456,
      "Ġfreedom": 5457,
      "Your": 5458,
      "ev": 5459,
      "irty": 5460,
      "using": 5461,
      "Ġtransformation": 5462,
      "Ġshapes": 5463,
      "Ġ...": 5464,
      "isy": 5465,
      "see": 5466,
      "ĠMexic": 5467,
      "Ġintellect": 5468,
      "Ġcapacity": 5469,
      "enth": 5470,
      "eless": 5471,
      "ĠSpe": 5472,
      "Ġrise": 5473,
      "Ġpal": 5474,
      "ĠGerman": 5475,
      "Ġ!": 5476,
      "Ġgar": 5477,
      "ĠVol": 5478,
      "value": 5479,
      "Ġdelight": 5480,
      "Ġanti": 5481,
      "ateful": 5482,
      "ructure": 5483,
      "ĠAmericans": 5484,
      "Ġinteractions": 5485,
      "Ġhugged": 5486,
      "100": 5487,
      "dry": 5488,
      "ĠServ": 5489,
      "ĠEd": 5490,
      "ologist": 5491,
      "Ġreplace": 5492,
      "Ġnutrit": 5493,
      "kay": 5494,
      "ls": 5495,
      "Ġattend": 5496,
      "Ġimplementing": 5497,
      "Ġcurrently": 5498,
      "fortunately": 5499,
      "Ġpandas": 5500,
      "state": 5501,
      "Ġresist": 5502,
      "Ġholding": 5503,
      "Ġurban": 5504,
      "Ġdegree": 5505,
      "Ġnone": 5506,
      "Ġparties": 5507,
      "ifications": 5508,
      "Ġapprox": 5509,
      "199": 5510,
      "Ġadventures": 5511,
      "Ġenjoyed": 5512,
      "Ġtap": 5513,
      "ĠConst": 5514,
      "jo": 5515,
      "Ġax": 5516,
      "Ġyouth": 5517,
      "anges": 5518,
      "####": 5519,
      "Ġpolitics": 5520,
      "Ġecosystem": 5521,
      "Ġwalls": 5522,
      "Ġframew": 5523,
      "Mom": 5524,
      "Ġaid": 5525,
      "Ġfundamental": 5526,
      "ĠWashington": 5527,
      "Ġunw": 5528,
      "ĠAssoci": 5529,
      "Ġspeak": 5530,
      "Ġconfidence": 5531,
      "Ġstrategy": 5532,
      "John": 5533,
      "icit": 5534,
      "pril": 5535,
      "Ġ2009": 5536,
      "45": 5537,
      "atch": 5538,
      "ĠMary": 5539,
      "Ġspect": 5540,
      "Ġremark": 5541,
      "Ġminor": 5542,
      "Ġlistening": 5543,
      "Ġpurs": 5544,
      "ĠMrs": 5545,
      "Ġexchange": 5546,
      "rich": 5547,
      "Ġple": 5548,
      "Ġfrag": 5549,
      "ĠSun": 5550,
      "Ġconfident": 5551,
      "Ġacknowled": 5552,
      "Ġvulner": 5553,
      "Ġabilities": 5554,
      "ultane": 5555,
      "ygen": 5556,
      "Ġsupporting": 5557,
      "Ġdrive": 5558,
      "Ġbias": 5559,
      "Ġcompetition": 5560,
      "Ġmissing": 5561,
      "Ġoutcome": 5562,
      "Ġefficiency": 5563,
      "Ġvegetables": 5564,
      "ander": 5565,
      "result": 5566,
      "Ġgene": 5567,
      "ĠSoci": 5568,
      "Ġsick": 5569,
      "ĠBra": 5570,
      "Ġnotes": 5571,
      "Ġdu": 5572,
      "Ġrub": 5573,
      "Ġsolve": 5574,
      "Ġcutting": 5575,
      "During": 5576,
      "house": 5577,
      "Ġbeg": 5578,
      "amil": 5579,
      "acing": 5580,
      "Ġregional": 5581,
      "igg": 5582,
      "Ġyellow": 5583,
      "Ġtales": 5584,
      "za": 5585,
      "Ġtips": 5586,
      "Ġmer": 5587,
      "sever": 5588,
      "ums": 5589,
      "ĠRoman": 5590,
      "Ġdisorders": 5591,
      "ibl": 5592,
      "Ġassistance": 5593,
      "Ġfacts": 5594,
      "Ġbeneath": 5595,
      "Ġconcern": 5596,
      "Ġcolumns": 5597,
      "ionally": 5598,
      "Ġspark": 5599,
      "fulness": 5600,
      "Ġterrit": 5601,
      "cription": 5602,
      "Ġstorage": 5603,
      "Ġenab": 5604,
      "ĠThus": 5605,
      "Ġtrends": 5606,
      "aimed": 5607,
      "Ġimpacts": 5608,
      "Ġpun": 5609,
      "Ġcha": 5610,
      "Ġspoke": 5611,
      "format": 5612,
      "Ġremove": 5613,
      "Ġflossing": 5614,
      "Ġfant": 5615,
      "ĠĠĠĠĠĠĠ": 5616,
      "Ġcoop": 5617,
      "Ġcareer": 5618,
      "ĠDavid": 5619,
      "Tom": 5620,
      "ĠTest": 5621,
      "ĠWhy": 5622,
      "Ġletters": 5623,
      "Ġelectr": 5624,
      "Ġregardless": 5625,
      "Ġban": 5626,
      "Ġreligion": 5627,
      "Ph": 5628,
      "Ġcontract": 5629,
      "condition": 5630,
      "Ġpracticing": 5631,
      "Dis": 5632,
      "Ġfirm": 5633,
      "ventions": 5634,
      "itchen": 5635,
      "icks": 5636,
      "Ġthick": 5637,
      "Ġcomputers": 5638,
      "70": 5639,
      "Ġhole": 5640,
      "anted": 5641,
      "ĠLin": 5642,
      "ĠOf": 5643,
      "ĠPrompt": 5644,
      "ait": 5645,
      "alk": 5646,
      "Ġensures": 5647,
      "inf": 5648,
      "ĠProt": 5649,
      "Ġcontinues": 5650,
      "Ġparticipants": 5651,
      "Ġcolleag": 5652,
      "Ġfruits": 5653,
      "Ġmerely": 5654,
      "ux": 5655,
      "ĠEast": 5656,
      "ĠStep": 5657,
      "Ġmetal": 5658,
      "Ġdesigns": 5659,
      "ampoo": 5660,
      "olve": 5661,
      "temperature": 5662,
      "Ġcopy": 5663,
      "rieved": 5664,
      "kin": 5665,
      "arr": 5666,
      "Ġmit": 5667,
      "exp": 5668,
      "Ġeconomy": 5669,
      "Ġdynamics": 5670,
      "iders": 5671,
      "Ġalign": 5672,
      "Ġarm": 5673,
      "Ġinteraction": 5674,
      "Ġbarri": 5675,
      "Before": 5676,
      "ĠSte": 5677,
      "Ġconc": 5678,
      "Ġancest": 5679,
      "ĠWestern": 5680,
      "Ġobstac": 5681,
      "CT": 5682,
      "Ġisol": 5683,
      "Ġvot": 5684,
      "ĠJames": 5685,
      "Ġcomprom": 5686,
      "Ġplayers": 5687,
      "Ġmarvel": 5688,
      "irection": 5689,
      "Ġrequests": 5690,
      "May": 5691,
      "item": 5692,
      "comfort": 5693,
      "Ġhuge": 5694,
      "ht": 5695,
      "Ġtun": 5696,
      "Ġuns": 5697,
      "Ġmagic": 5698,
      "Ġsumm": 5699,
      "ounced": 5700,
      "Ġappoint": 5701,
      "icted": 5702,
      "Ġparameters": 5703,
      "ĠJesus": 5704,
      "lement": 5705,
      "cember": 5706,
      "ĠRev": 5707,
      "poses": 5708,
      "ĠEnvironment": 5709,
      "Ġparameter": 5710,
      "Ġclothing": 5711,
      "ĠWhether": 5712,
      "},": 5713,
      "Ġnu": 5714,
      "idential": 5715,
      "ocked": 5716,
      "iously": 5717,
      "Ġpattern": 5718,
      "Ġdiscussed": 5719,
      "Ġinfection": 5720,
      "Ġmoral": 5721,
      "Ġindependent": 5722,
      "ĠJune": 5723,
      "Ġmanip": 5724,
      "Ġmig": 5725,
      "eline": 5726,
      "cho": 5727,
      "ĠSet": 5728,
      "Ġexplored": 5729,
      "Ġcalculates": 5730,
      "Our": 5731,
      "US": 5732,
      "Ġprimarily": 5733,
      "Ġclaim": 5734,
      "Ġleadership": 5735,
      "Ġapart": 5736,
      "Ġhour": 5737,
      "ĠAir": 5738,
      "Ġclub": 5739,
      "Ġbuildings": 5740,
      "ĠConsent": 5741,
      "Ġcalculated": 5742,
      "gment": 5743,
      "Ġic": 5744,
      "Ġsuitable": 5745,
      "Ġdiscipl": 5746,
      "Ġmeals": 5747,
      "Ġtransfer": 5748,
      "OS": 5749,
      "ixt": 5750,
      "Ġfitness": 5751,
      "Ġhur": 5752,
      "Ġrelease": 5753,
      "Ġreson": 5754,
      "Ġinternal": 5755,
      "gen": 5756,
      "yd": 5757,
      "Ġhttp": 5758,
      "Ġrelative": 5759,
      "Ġoccurs": 5760,
      "Ġoccurred": 5761,
      "ĠJuly": 5762,
      "See": 5763,
      "Ġband": 5764,
      "Ġdress": 5765,
      "Ġcarried": 5766,
      "Ġremaining": 5767,
      "Ġnavigating": 5768,
      "Ġeld": 5769,
      "Ġsched": 5770,
      "Ġscale": 5771,
      "certain": 5772,
      "points": 5773,
      "Ġvirtual": 5774,
      "ĠEthics": 5775,
      "Suddenly": 5776,
      "ĠIS": 5777,
      "Ġdeal": 5778,
      "Ġdecades": 5779,
      "Ġcompar": 5780,
      "Ġstruggle": 5781,
      "Dr": 5782,
      "iology": 5783,
      "Ġbank": 5784,
      "ĠCreate": 5785,
      "Ġhero": 5786,
      "Ġdear": 5787,
      "ĠPrivacy": 5788,
      "Ġdialogue": 5789,
      "rypt": 5790,
      "ĠOrgan": 5791,
      "Ġexternal": 5792,
      "Ġenable": 5793,
      "orthern": 5794,
      "Ġclearly": 5795,
      "Ġinfect": 5796,
      "clean": 5797,
      "Ġtaste": 5798,
      "Ġson": 5799,
      "omic": 5800,
      "ĠMc": 5801,
      "Ġkid": 5802,
      "apes": 5803,
      "ĠChurch": 5804,
      "Ġhappening": 5805,
      "Ġartistic": 5806,
      "Ġclasses": 5807,
      "Ġminds": 5808,
      "Ġelectricity": 5809,
      "22": 5810,
      "Ġath": 5811,
      "ooked": 5812,
      "Ġtherefore": 5813,
      "lecting": 5814,
      "Ġreports": 5815,
      "ratic": 5816,
      "Ġmilk": 5817,
      "Ġdatab": 5818,
      "Ġsustainability": 5819,
      "Ġevaluate": 5820,
      "Ġsolely": 5821,
      "Ġfold": 5822,
      "weather": 5823,
      "Ġpassionate": 5824,
      "erie": 5825,
      "agers": 5826,
      "Ġvo": 5827,
      "Ġsparked": 5828,
      "Ġprices": 5829,
      "Ġformat": 5830,
      "Ġflower": 5831,
      "Ġindicate": 5832,
      "aved": 5833,
      "Ġcream": 5834,
      "Ġfloor": 5835,
      "ĠTransparency": 5836,
      "cited": 5837,
      "Ġrot": 5838,
      "ĠConn": 5839,
      "ĠIslam": 5840,
      "Ġimprovement": 5841,
      "consent": 5842,
      "Res": 5843,
      "Ġgone": 5844,
      "Ġrealize": 5845,
      "Ġfiles": 5846,
      "ĠResponsibility": 5847,
      "embered": 5848,
      "semb": 5849,
      "ĠBefore": 5850,
      "ĠFound": 5851,
      "ĠProper": 5852,
      "aughter": 5853,
      "rogen": 5854,
      "Ġrestr": 5855,
      "Ġpreferences": 5856,
      "Ġengineer": 5857,
      "Ġimmediate": 5858,
      "Ġfeedback": 5859,
      "Ġnorth": 5860,
      "ĠDa": 5861,
      "ĠDNA": 5862,
      "Ġshel": 5863,
      "Ġrelax": 5864,
      "related": 5865,
      "Ġforever": 5866,
      "Ġera": 5867,
      "Meanwhile": 5868,
      "Ġshar": 5869,
      "ĠThink": 5870,
      "ords": 5871,
      "iences": 5872,
      "Ġsquare": 5873,
      "Ġscores": 5874,
      "ognitive": 5875,
      "Ġrecognize": 5876,
      "transform": 5877,
      "inter": 5878,
      "Ġadvers": 5879,
      "Ġvisited": 5880,
      "Ġopening": 5881,
      "ĠLib": 5882,
      "Ġremembered": 5883,
      "ĠMor": 5884,
      "avors": 5885,
      "Ġradio": 5886,
      "ĠReliability": 5887,
      "Ġsought": 5888,
      "alid": 5889,
      "Ġmale": 5890,
      "igor": 5891,
      "Ġexplan": 5892,
      "ĠEmp": 5893,
      "Ġpaid": 5894,
      "ĠEveryone": 5895,
      "Ġviolence": 5896,
      "Ġexpectations": 5897,
      "Ġsessions": 5898,
      "ypes": 5899,
      "ĠAI": 5900,
      "Ġconver": 5901,
      "Ġloop": 5902,
      "Ġperformed": 5903,
      "Ġcombination": 5904,
      "Ġdoub": 5905,
      "Ġnuclear": 5906,
      "Ġsouth": 5907,
      "Ġtechnological": 5908,
      "Ġinitiatives": 5909,
      "Ġencountered": 5910,
      "rors": 5911,
      "Ġsnow": 5912,
      "Ġpages": 5913,
      "Ġshall": 5914,
      "ĠAugust": 5915,
      "ET": 5916,
      "Ġnations": 5917,
      "eted": 5918,
      "etry": 5919,
      "Ġeveryday": 5920,
      "Ġregulations": 5921,
      "Ġboat": 5922,
      "Ġprotecting": 5923,
      "Ġcolorful": 5924,
      "ĠDevelopment": 5925,
      "Can": 5926,
      "cal": 5927,
      "itis": 5928,
      "ptember": 5929,
      "Ġshiny": 5930,
      "Ġoverl": 5931,
      "Ġanymore": 5932,
      "Ġengaged": 5933,
      "Ġconstant": 5934,
      "ĠCommon": 5935,
      "ĠGeorge": 5936,
      "24": 5937,
      "itor": 5938,
      "Ġwearing": 5939,
      "Ġoverwhel": 5940,
      "Ġsyn": 5941,
      "Ġdefault": 5942,
      "parent": 5943,
      "Ġcategories": 5944,
      "Ġthoroughly": 5945,
      "cked": 5946,
      "Ġinterested": 5947,
      "Ġsuggests": 5948,
      "Ġmysterious": 5949,
      "aper": 5950,
      "pen": 5951,
      "ighter": 5952,
      "apers": 5953,
      "ologists": 5954,
      "Ġtreatments": 5955,
      "Ġobserv": 5956,
      "Ġdestro": 5957,
      "ĠPerform": 5958,
      "Ġdrugs": 5959,
      "Ġcul": 5960,
      "Ġnative": 5961,
      "Ġstick": 5962,
      "ĠDan": 5963,
      "Ġshop": 5964,
      "Ġpregn": 5965,
      "ĠEngland": 5966,
      "Ġdangerous": 5967,
      "Ben": 5968,
      "atically": 5969,
      "iform": 5970,
      "ĠSol": 5971,
      "ĠEv": 5972,
      "ificial": 5973,
      "ossible": 5974,
      "Ġacid": 5975,
      "Ġwellbeing": 5976,
      "Ġlargest": 5977,
      "ographic": 5978,
      "False": 5979,
      "Ġliqu": 5980,
      "ovember": 5981,
      "Ġrecon": 5982,
      "Ġmachines": 5983,
      "oiding": 5984,
      "Ġfine": 5985,
      "ĠDay": 5986,
      "ĠUnion": 5987,
      "Ġafford": 5988,
      "Ġmotiv": 5989,
      "Ġscholars": 5990,
      "ila": 5991,
      "Ġforth": 5992,
      "ĠSch": 5993,
      "Ġunl": 5994,
      "Ġhelpful": 5995,
      "Ġinspire": 5996,
      "Ġaccompl": 5997,
      "rum": 5998,
      "ĠOl": 5999,
      "Ġarts": 6000,
      "Ġidentified": 6001,
      "Ġarguments": 6002,
      "down": 6003,
      "max": 6004,
      "Ġsorry": 6005,
      "Ġwealth": 6006,
      "index": 6007,
      "Ġfinished": 6008,
      "Ġannual": 6009,
      "Ġtemperatures": 6010,
      "Ġguess": 6011,
      "Ġpurposes": 6012,
      "split": 6013,
      "antic": 6014,
      "Ġedge": 6015,
      "Ġentirely": 6016,
      "Ġremarkable": 6017,
      "ĠPublic": 6018,
      "Ġcompleted": 6019,
      "Ġimportantly": 6020,
      "Ġcharacteristics": 6021,
      "Ġliterary": 6022,
      "Ġnetworks": 6023,
      "Ġjobs": 6024,
      "Ġrevolution": 6025,
      "Ġbehaviors": 6026,
      "ultaneously": 6027,
      "esson": 6028,
      "unt": 6029,
      "Ġchose": 6030,
      "izer": 6031,
      "Ġapplying": 6032,
      "Ġspeech": 6033,
      "Ġperforming": 6034,
      "Ġmotion": 6035,
      "Ġdatetime": 6036,
      "ĠIntroduction": 6037,
      "ĠApril": 6038,
      "ĊĠĠĠĠĊ": 6039,
      "Ġarray": 6040,
      "Ġanalyzing": 6041,
      "Introduction": 6042,
      "Ġaccurate": 6043,
      "Ġdocuments": 6044,
      "/`": 6045,
      "Up": 6046,
      "Ġmode": 6047,
      "raction": 6048,
      "Ġseconds": 6049,
      "Ġlaughter": 6050,
      "ĠOutput": 6051,
      "ĠHappy": 6052,
      "Ġ2013": 6053,
      "ĠRetrieved": 6054,
      "Ġbath": 6055,
      "icial": 6056,
      "Ġreminder": 6057,
      "Welcome": 6058,
      "band": 6059,
      "Ġcovered": 6060,
      "ician": 6061,
      "Ġreb": 6062,
      "amination": 6063,
      "ĠMo": 6064,
      "Ġsufficient": 6065,
      "Ġspeaking": 6066,
      "Ġhoriz": 6067,
      "Ġ!=": 6068,
      "itter": 6069,
      "Ġlink": 6070,
      "Ġfeels": 6071,
      "Ġdemoc": 6072,
      "Ġgenuine": 6073,
      "ĠMiddle": 6074,
      "men": 6075,
      "Ġnails": 6076,
      "Ġkitchen": 6077,
      "ĠYes": 6078,
      "Ġarticles": 6079,
      "Ġintellectual": 6080,
      "Ġlunch": 6081,
      "Ġstyles": 6082,
      "ĠOct": 6083,
      "Ġsurgery": 6084,
      "Ġvisiting": 6085,
      "Ġsunlight": 6086,
      "Chapter": 6087,
      "Fe": 6088,
      "ptom": 6089,
      "conn": 6090,
      "Ġcomplexity": 6091,
      "Ġscene": 6092,
      "Ġwildlife": 6093,
      "`/`": 6094,
      "ĠWelcome": 6095,
      "ĠUN": 6096,
      "Ġfeat": 6097,
      "Ġtwice": 6098,
      "Ġadvancements": 6099,
      "agon": 6100,
      "Ġoutl": 6101,
      "Ġdecide": 6102,
      "Ġviews": 6103,
      "Ġreflecting": 6104,
      "Ġnutri": 6105,
      "Ġapproximately": 6106,
      "outhern": 6107,
      "Ġunderlying": 6108,
      "ĠViet": 6109,
      "Ġsolving": 6110,
      "Ġorigin": 6111,
      "Ġcoughing": 6112,
      "29": 6113,
      "Ġaccident": 6114,
      "Ġfriendship": 6115,
      "Ġdrug": 6116,
      "Ġprocedures": 6117,
      "ĠJanuary": 6118,
      "wl": 6119,
      "Ġtale": 6120,
      "inent": 6121,
      "Ġchann": 6122,
      "ĠVir": 6123,
      "Ġnegot": 6124,
      "Ġcommercial": 6125,
      "ĠOff": 6126,
      "Ġinvalid": 6127,
      "Ġinspiration": 6128,
      "Ġperiods": 6129,
      "sequently": 6130,
      "iate": 6131,
      "top": 6132,
      "Ġment": 6133,
      "Ġselection": 6134,
      "Ġextrem": 6135,
      "Ġlegisl": 6136,
      "Ġemerging": 6137,
      "Ġdebate": 6138,
      "Ġoxygen": 6139,
      "Ġdinner": 6140,
      "='": 6141,
      "iest": 6142,
      "ĠPract": 6143,
      "Ġpoly": 6144,
      "Ġowner": 6145,
      "Ġsubm": 6146,
      "Ġaffecting": 6147,
      "ses": 6148,
      "isk": 6149,
      "alog": 6150,
      "Ġsav": 6151,
      "Ġ21": 6152,
      "Ġpossibilities": 6153,
      "iasm": 6154,
      "Ġvitamin": 6155,
      "Ġanxiety": 6156,
      "essage": 6157,
      "ĠBar": 6158,
      "Then": 6159,
      "Ġarms": 6160,
      "ictions": 6161,
      "Ġconnecting": 6162,
      "Ġbroken": 6163,
      "Ġmechanisms": 6164,
      "Ġwel": 6165,
      "Ġspend": 6166,
      "Ġeagerly": 6167,
      "Her": 6168,
      "dates": 6169,
      "Ġtum": 6170,
      "oral": 6171,
      "Ġpec": 6172,
      "ĠCall": 6173,
      "ĠMich": 6174,
      "Ġliber": 6175,
      "Ġ2006": 6176,
      "Ġsurprised": 6177,
      "Ġexercises": 6178,
      "Ġenthusiasm": 6179,
      "Ġwinter": 6180,
      "Ġbacteria": 6181,
      "Ġdiscoveries": 6182,
      "Be": 6183,
      "ida": 6184,
      "Ġmeat": 6185,
      "Ġhumanity": 6186,
      "Ġinherent": 6187,
      "ĠList": 6188,
      "Ġrealm": 6189,
      "65": 6190,
      "rations": 6191,
      "rets": 6192,
      "ald": 6193,
      "Ġnail": 6194,
      "ĠBr": 6195,
      "Ġtransc": 6196,
      "Ġdiabetes": 6197,
      "Ġsurfaces": 6198,
      "Ġaccepted": 6199,
      "ĠJews": 6200,
      "Ġintelligence": 6201,
      "ĠArch": 6202,
      "Ġaudience": 6203,
      "hist": 6204,
      "Ġrat": 6205,
      "Ġbrings": 6206,
      "Ġclosed": 6207,
      "Ġexpressed": 6208,
      "Ġexistence": 6209,
      "Ġharmony": 6210,
      "Ġrapidly": 6211,
      "Ġnor": 6212,
      "aph": 6213,
      "Ġroots": 6214,
      "Ġleader": 6215,
      "ĠWhite": 6216,
      "Ġheavily": 6217,
      "ĠBlack": 6218,
      "ĠGeneral": 6219,
      "Ġordinary": 6220,
      "ĠWilliam": 6221,
      "lin": 6222,
      "ĠSuch": 6223,
      "Ġoral": 6224,
      "Ġgenes": 6225,
      "Ġattrib": 6226,
      "Ġmarked": 6227,
      "Ġcup": 6228,
      "Ġupper": 6229,
      "ĠDirect": 6230,
      "Ġtechnical": 6231,
      "Ġconflicts": 6232,
      "35": 6233,
      "Ġdealing": 6234,
      "ĠBudd": 6235,
      "Ġdoctors": 6236,
      "Ġ['": 6237,
      "Ġexcellent": 6238,
      "ĠDecember": 6239,
      "Ġamounts": 6240,
      "och": 6241,
      "product": 6242,
      "total": 6243,
      "vity": 6244,
      "Ġda": 6245,
      "icul": 6246,
      "ĠBias": 6247,
      "Ġwants": 6248,
      "ĠCalculates": 6249,
      "Ġbonds": 6250,
      "Dry": 6251,
      "orking": 6252,
      "Ġpair": 6253,
      "Ġstored": 6254,
      "Ġuniverse": 6255,
      "Ġsklearn": 6256,
      "Ġdriving": 6257,
      "Ġanticip": 6258,
      "Ġmal": 6259,
      "ĠHuman": 6260,
      "Ġfollows": 6261,
      "Ġteams": 6262,
      "Ġparticipate": 6263,
      "ĠSecond": 6264,
      "Ġenthusiasts": 6265,
      "?âĢĿ": 6266,
      "Rem": 6267,
      "Ġsides": 6268,
      "ĠIdent": 6269,
      "Ġchecking": 6270,
      "Ġmarine": 6271,
      "Ġpainting": 6272,
      "Ġexcitedly": 6273,
      "leg": 6274,
      "ĠTem": 6275,
      "Ġindigenous": 6276,
      "Ġserving": 6277,
      "valu": 6278,
      "Ġsensitive": 6279,
      "Ġdelicate": 6280,
      "Ġsoup": 6281,
      "Ġdiscrimination": 6282,
      "Ġtoilet": 6283,
      "char": 6284,
      "ĠStr": 6285,
      "Ġfoundation": 6286,
      "Ġpolice": 6287,
      "Ġstret": 6288,
      "Ġ80": 6289,
      "Some": 6290,
      "sym": 6291,
      "wood": 6292,
      "Ġsend": 6293,
      "urg": 6294,
      "Ġrul": 6295,
      "tee": 6296,
      "Ġcategory": 6297,
      "Ġfrust": 6298,
      "Frame": 6299,
      "Ġwave": 6300,
      "itud": 6301,
      "Ġprofess": 6302,
      "âĢ¢": 6303,
      "ĠLeg": 6304,
      "Ġdisplays": 6305,
      "Ġskill": 6306,
      "Ġclassroom": 6307,
      "Ġseverity": 6308,
      "Ġhonest": 6309,
      "Ġtub": 6310,
      "Ġdirection": 6311,
      "ĠMic": 6312,
      "Ġflour": 6313,
      "Ġdreams": 6314,
      "90": 6315,
      "ĠCare": 6316,
      "rian": 6317,
      "fall": 6318,
      "tes": 6319,
      "Ġsight": 6320,
      "rome": 6321,
      "Ġprecious": 6322,
      "Ġintervention": 6323,
      "Ġowners": 6324,
      "values": 6325,
      "Ġcouple": 6326,
      "ĠSociety": 6327,
      "[:": 6328,
      "rary": 6329,
      "ashed": 6330,
      "ĠCD": 6331,
      "ĠAlice": 6332,
      "Ġfaces": 6333,
      "Ġmotor": 6334,
      "Ġpreviously": 6335,
      "Ġtit": 6336,
      "Ġswe": 6337,
      "riage": 6338,
      "Ġinvent": 6339,
      "Ġcaptivating": 6340,
      "Em": 6341,
      "Ġstrang": 6342,
      "Thank": 6343,
      "Ġstream": 6344,
      "ĠManagement": 6345,
      "Ġlabel": 6346,
      "Ġcomfortable": 6347,
      "ola": 6348,
      "DA": 6349,
      "ĠHouse": 6350,
      "Ġenables": 6351,
      "Ġ2000": 6352,
      "Ġsubstant": 6353,
      "Ġneighborhood": 6354,
      "Ġinsect": 6355,
      "ĠMal": 6356,
      "ocal": 6357,
      "ondon": 6358,
      "Ġnewly": 6359,
      "ĠElse": 6360,
      "ouncil": 6361,
      "Ġbottom": 6362,
      "Ġmovie": 6363,
      "atin": 6364,
      "asy": 6365,
      "Ġresponsibilities": 6366,
      "Ġsubjects": 6367,
      "Ġcommunicate": 6368,
      "bor": 6369,
      "Ġuncertain": 6370,
      "'].": 6371,
      "Ġclinical": 6372,
      "Ġsell": 6373,
      "arad": 6374,
      "Ġinner": 6375,
      "ighed": 6376,
      "ogen": 6377,
      "Ġdishes": 6378,
      "Ġflood": 6379,
      "ĠSeptember": 6380,
      "Ġoptimal": 6381,
      "tw": 6382,
      "itution": 6383,
      "ĠSer": 6384,
      "Ġchemicals": 6385,
      "Ġobstacles": 6386,
      "Ġnerv": 6387,
      "ete": 6388,
      "Ġhealing": 6389,
      "Ġdism": 6390,
      "Ġraw": 6391,
      "Ġbigger": 6392,
      "Ġshowc": 6393,
      "Ġoperation": 6394,
      "Ġindustrial": 6395,
      "Ġconsistent": 6396,
      "Ġmassive": 6397,
      "requency": 6398,
      "Ġpecul": 6399,
      "ss": 6400,
      "owed": 6401,
      "ifies": 6402,
      "ĠMake": 6403,
      "Ġinsight": 6404,
      "Ġdistrict": 6405,
      "Ġdescription": 6406,
      "Ġencouraging": 6407,
      "ĠGermany": 6408,
      "Ġforgot": 6409,
      "Ġdied": 6410,
      "ĠLoop": 6411,
      "Ġrespective": 6412,
      "Ġhoping": 6413,
      "Ġsusp": 6414,
      "Ġbudget": 6415,
      "mas": 6416,
      "spe": 6417,
      "Ġasp": 6418,
      "Ġkindness": 6419,
      "Ġpassing": 6420,
      "Ġmuscle": 6421,
      "ĠSecurity": 6422,
      "ING": 6423,
      "Ġcarrying": 6424,
      "Ġskept": 6425,
      "AM": 6426,
      "ĠCour": 6427,
      "ĠFeb": 6428,
      "ĠJournal": 6429,
      "path": 6430,
      "lege": 6431,
      "asures": 6432,
      "Ġfort": 6433,
      "ĠLike": 6434,
      "Ġstruggles": 6435,
      "ĠAssociation": 6436,
      "More": 6437,
      "Ġwish": 6438,
      "ĠPrin": 6439,
      "Ġresidents": 6440,
      "aker": 6441,
      "Ġformation": 6442,
      "Trans": 6443,
      "Ġbattle": 6444,
      "ĠHen": 6445,
      "Ġstrict": 6446,
      "reliability": 6447,
      "Ġreleased": 6448,
      "rastructure": 6449,
      "Act": 6450,
      "afe": 6451,
      "Ġmillions": 6452,
      "plicated": 6453,
      "Ġdynamic": 6454,
      "Ġpollution": 6455,
      "Ġpeculiar": 6456,
      "file": 6457,
      "ĠGrand": 6458,
      "Ġembark": 6459,
      "Ġgovernments": 6460,
      "Ġsurprising": 6461,
      "Ġpreparing": 6462,
      "EM": 6463,
      "ION": 6464,
      "Ġped": 6465,
      "Ġbrows": 6466,
      "ĠArab": 6467,
      "ĠBet": 6468,
      "Ġempt": 6469,
      "ĠĠĠĠĠĠĠĠĠĠĠĠĠĠĠĠ": 6470,
      "Ġpaths": 6471,
      "Ġvolunte": 6472,
      "Ġsamples": 6473,
      "Ġlic": 6474,
      "ameters": 6475,
      "that": 6476,
      "Ġdifferently": 6477,
      "Ġ[]": 6478,
      "Ġlimits": 6479,
      "Ġemployees": 6480,
      "Ġembrace": 6481,
      "Ġsession": 6482,
      "64": 6483,
      "road": 6484,
      "Ġ\"\\": 6485,
      "ria": 6486,
      "Ġregul": 6487,
      "Ġmuscles": 6488,
      "Ġencouraged": 6489,
      "Ġencourages": 6490,
      "ĠGreek": 6491,
      "Don": 6492,
      "Sam": 6493,
      "ĠCouncil": 6494,
      "()`": 6495,
      "uilding": 6496,
      "All": 6497,
      "bow": 6498,
      "arah": 6499,
      "ceived": 6500,
      "utional": 6501,
      "Ġwhom": 6502,
      "Ġalt": 6503,
      "estyle": 6504,
      "Ġprepare": 6505,
      "class": 6506,
      "())": 6507,
      "rigued": 6508,
      "ĠInitial": 6509,
      "ĠMedicine": 6510,
      "Ġtension": 6511,
      "ĠSub": 6512,
      "ĠRun": 6513,
      "ears": 6514,
      "Ġacts": 6515,
      "Ġethn": 6516,
      "Ġworksh": 6517,
      "Ġstepped": 6518,
      "ĠFrance": 6519,
      "Ġdebates": 6520,
      "Ġmixed": 6521,
      "HO": 6522,
      "ij": 6523,
      "well": 6524,
      "Ġpra": 6525,
      "ĠPort": 6526,
      "Ġ({": 6527,
      "Ġchurch": 6528,
      "ober": 6529,
      "Ġprepar": 6530,
      "Ġcalls": 6531,
      "Ġetiquette": 6532,
      "Ġinspiring": 6533,
      "Ġrecognition": 6534,
      "EL": 6535,
      "rity": 6536,
      "Ġsitting": 6537,
      "Ġrevel": 6538,
      "Ġadult": 6539,
      "zer": 6540,
      "Ġfert": 6541,
      "Ġbone": 6542,
      "Ġlens": 6543,
      "ĠHel": 6544,
      "Ġpromised": 6545,
      "Ġcontributing": 6546,
      "Timmy": 6547,
      "Ref": 6548,
      "mic": 6549,
      "ye": 6550,
      "Ġworried": 6551,
      "Ġ194": 6552,
      "Ġgeneration": 6553,
      "ashion": 6554,
      "Ġbrand": 6555,
      "Ġcombining": 6556,
      "Ġfighting": 6557,
      "Ġcolleagues": 6558,
      "Ġtu": 6559,
      "Ġble": 6560,
      "Ġyield": 6561,
      "Ġgoods": 6562,
      "Ġplanned": 6563,
      "rapy": 6564,
      "Ġwarmly": 6565,
      "ĠUser": 6566,
      "Ġtack": 6567,
      "Ġpip": 6568,
      "Ġos": 6569,
      "ĠSl": 6570,
      "ĠCarl": 6571,
      "Ġmeal": 6572,
      "Ġinterview": 6573,
      "Ġprogramming": 6574,
      "Ġcreates": 6575,
      "Ġharmful": 6576,
      "Ġnorms": 6577,
      "Ġfailure": 6578,
      "Cons": 6579,
      "da": 6580,
      "Ġcere": 6581,
      "Ġreference": 6582,
      "Ġlean": 6583,
      "Ġseven": 6584,
      "Ġexamination": 6585,
      "Ġbasis": 6586,
      "27": 6587,
      "othing": 6588,
      "unting": 6589,
      "Ġneither": 6590,
      "ĠRich": 6591,
      "Ġagg": 6592,
      "Ġ2005": 6593,
      "Ġaudiences": 6594,
      "Ġmathematical": 6595,
      "Ġstock": 6596,
      "Ġproved": 6597,
      "Ġproceed": 6598,
      "ello": 6599,
      "'])": 6600,
      "ĠYoung": 6601,
      "Ġrepresented": 6602,
      "Ġinjury": 6603,
      "ĠSmith": 6604,
      "Ġreaching": 6605,
      "Ġrecip": 6606,
      "Ġvs": 6607,
      "Ġsynt": 6608,
      "Ġattack": 6609,
      "Ġpointed": 6610,
      "Ġfarmers": 6611,
      "Ġsales": 6612,
      "Ġenhancing": 6613,
      "Ġschedule": 6614,
      "CC": 6615,
      "gal": 6616,
      "Ġdict": 6617,
      "ĠFore": 6618,
      "Ġshout": 6619,
      "Ġshoes": 6620,
      "Ġcloud": 6621,
      "------------": 6622,
      "Ġstreet": 6623,
      "Ġinternet": 6624,
      "Ġroute": 6625,
      "ĠPhil": 6626,
      "ĠDesign": 6627,
      "Ġphotos": 6628,
      "ĠJapanese": 6629,
      "severance": 6630,
      "Ġstead": 6631,
      "ĠMount": 6632,
      "Ġshot": 6633,
      "ĠVis": 6634,
      "elta": 6635,
      "Ġcycle": 6636,
      "ĊĉĠĠĠ": 6637,
      "itors": 6638,
      "Ġhug": 6639,
      "ĠPal": 6640,
      "ava": 6641,
      "ĠKey": 6642,
      "Ġideal": 6643,
      "iox": 6644,
      "Ġtreated": 6645,
      "Ġenjoying": 6646,
      "Ġzero": 6647,
      "ĠThomas": 6648,
      "ta": 6649,
      "Ġenem": 6650,
      "Ġrelatively": 6651,
      "Ġforming": 6652,
      "Ġinvestment": 6653,
      "Ġgathering": 6654,
      "33": 6655,
      "Sarah": 6656,
      "Ġdust": 6657,
      "imal": 6658,
      "Ġchick": 6659,
      "Ġseeds": 6660,
      "ĠNovember": 6661,
      "Ġweren": 6662,
      "ĠRepublic": 6663,
      "Ġlights": 6664,
      "umin": 6665,
      "Ġship": 6666,
      "Ġprison": 6667,
      "ĠThough": 6668,
      "Ġathlet": 6669,
      "Ġcourage": 6670,
      "Ġnotable": 6671,
      "Ġshift": 6672,
      "Ġphr": 6673,
      "venile": 6674,
      "ĠSpan": 6675,
      "ĠSpec": 6676,
      "Ġfeaturing": 6677,
      "New": 6678,
      "})": 6679,
      "Ġmum": 6680,
      "throp": 6681,
      "ĠHarm": 6682,
      "Ġended": 6683,
      "Ġdemonstrate": 6684,
      "ĠControl": 6685,
      "Ġpermission": 6686,
      "Ġtailored": 6687,
      "28": 6688,
      "friend": 6689,
      "telling": 6690,
      "rolog": 6691,
      "III": 6692,
      "Ġintriguing": 6693,
      "Ġcomprehensive": 6694,
      "Ġbrief": 6695,
      "acking": 6696,
      "rams": 6697,
      "ĠWeb": 6698,
      "Ġincreases": 6699,
      "Ġcommonly": 6700,
      "Ġfascinated": 6701,
      "Ġsentence": 6702,
      "Ġcalm": 6703,
      "Ġbarriers": 6704,
      "ĠÂ": 6705,
      "Ġtro": 6706,
      "ella": 6707,
      "ĠJoe": 6708,
      "ĠAsia": 6709,
      "ĠBig": 6710,
      "Ġfloss": 6711,
      "what": 6712,
      "Ġdegrees": 6713,
      "Ġbillion": 6714,
      "Che": 6715,
      "Ġflying": 6716,
      "threshold": 6717,
      "ĠDad": 6718,
      "Ġemissions": 6719,
      "Ġappearance": 6720,
      "Ġwidely": 6721,
      "Ġeggs": 6722,
      "ĠTre": 6723,
      "ĠWomen": 6724,
      "Ġperseverance": 6725,
      "Ġcharge": 6726,
      "Ġinfrastructure": 6727,
      "Ġenabling": 6728,
      "Americ": 6729,
      "ĠMat": 6730,
      "ĠFind": 6731,
      "ĠExp": 6732,
      "Ġtemp": 6733,
      "bye": 6734,
      "Ġdrink": 6735,
      "ĠQue": 6736,
      "Ġconducted": 6737,
      "Ġqualities": 6738,
      "Ġspl": 6739,
      "Ġfalse": 6740,
      "aria": 6741,
      "anes": 6742,
      "ĠCivil": 6743,
      "ĠDeterm": 6744,
      "Ġclust": 6745,
      "Ġcontinuous": 6746,
      "Ġimmune": 6747,
      "Ġsymbols": 6748,
      "Ġtitle": 6749,
      "Ġconventional": 6750,
      "Ġdispar": 6751,
      "Ġartist": 6752,
      "ĠAlso": 6753,
      "ker": 6754,
      "eding": 6755,
      "Ġlosing": 6756,
      "Ġjoint": 6757,
      "active": 6758,
      "Ġexplo": 6759,
      "Ġsurvival": 6760,
      "Ġrhyth": 6761,
      "Ġcos": 6762,
      "eli": 6763,
      "ĊĠĠĠĠĠĠ": 6764,
      "hesis": 6765,
      "Ġlands": 6766,
      "Ġtrial": 6767,
      "Ġ90": 6768,
      "Ġstaying": 6769,
      "Ġlandscapes": 6770,
      "Ġproteins": 6771,
      "'))": 6772,
      "Ġstake": 6773,
      "ĠPersonal": 6774,
      "Ġcorpor": 6775,
      "Ġmarg": 6776,
      "Ġdrawn": 6777,
      "Ġhospital": 6778,
      "night": 6779,
      "erved": 6780,
      "arter": 6781,
      "omb": 6782,
      "utive": 6783,
      "ĠInformation": 6784,
      "Ġinclusive": 6785,
      "Ġthreats": 6786,
      "Ġrenewed": 6787,
      "Ġdaughter": 6788,
      "Ġstability": 6789,
      "ruary": 6790,
      "Ġsimultaneously": 6791,
      "Ġstreets": 6792,
      "risk": 6793,
      "mo": 6794,
      "rates": 6795,
      "ĠĊĠĠĠĠĠĠĠĠĠĠĠĠĠĠĠ": 6796,
      "Ġcognitive": 6797,
      "Ġfest": 6798,
      "section": 6799,
      "Ġchronic": 6800,
      "ĠFol": 6801,
      "Ġintake": 6802,
      "Ġstudied": 6803,
      "Ġsimpl": 6804,
      "Ġformal": 6805,
      "Ġopinions": 6806,
      "Ġtight": 6807,
      "ĠMart": 6808,
      "Ġindicates": 6809,
      "Ġemergency": 6810,
      "Ġvess": 6811,
      "Ġ23": 6812,
      "apping": 6813,
      "process": 6814,
      "Ġarchitecture": 6815,
      "Ġmuseum": 6816,
      "Ġhob": 6817,
      "Ġforced": 6818,
      "ĠBecause": 6819,
      "Ġholds": 6820,
      "ĠCollege": 6821,
      "ASA": 6822,
      "Ġrobust": 6823,
      "Ġlinked": 6824,
      "ĠPers": 6825,
      "Ġunits": 6826,
      "Ġelectronic": 6827,
      "Ġcontributions": 6828,
      "ĠCommission": 6829,
      "Ġemployed": 6830,
      "Ġradiation": 6831,
      ")):": 6832,
      "OT": 6833,
      "Use": 6834,
      "items": 6835,
      "arant": 6836,
      "Ġchain": 6837,
      "Ġprev": 6838,
      "Ġdeliv": 6839,
      "Ġdedication": 6840,
      "Ġsocieties": 6841,
      "Ġreactions": 6842,
      "Key": 6843,
      "num": 6844,
      "oves": 6845,
      "infect": 6846,
      "Ġcards": 6847,
      "itize": 6848,
      "eting": 6849,
      "outs": 6850,
      "Ġrecovery": 6851,
      "Ġcleanliness": 6852,
      "ĠStudents": 6853,
      "Ġpreserve": 6854,
      "ĠRegular": 6855,
      "ĠParameters": 6856,
      "Ġofficials": 6857,
      "Ġdestroy": 6858,
      "26": 6859,
      "85": 6860,
      "gl": 6861,
      "Ġfoss": 6862,
      "Ġreaction": 6863,
      "Ġincorporate": 6864,
      "Ġscroll": 6865,
      "ĠKore": 6866,
      "Ġparticles": 6867,
      "Ġrestaur": 6868,
      "Ġoperating": 6869,
      "Ġempower": 6870,
      "Ġstruggled": 6871,
      "ĠPaul": 6872,
      "Ġdisorder": 6873,
      "Ġtech": 6874,
      "Ġlocations": 6875,
      "Ġ2004": 6876,
      "Ġstruggling": 6877,
      "Ġinjuries": 6878,
      "ĠVirgin": 6879,
      "crib": 6880,
      "Ġweap": 6881,
      "Ġplastic": 6882,
      "Ġessence": 6883,
      "ĠReal": 6884,
      "Ġvehicles": 6885,
      "nes": 6886,
      "edia": 6887,
      "Ġhus": 6888,
      "Ġlit": 6889,
      "Ġshad": 6890,
      "astly": 6891,
      "Ġunknown": 6892,
      "Ġflag": 6893,
      "venue": 6894,
      "Ġamongst": 6895,
      "Ġdescribe": 6896,
      "Ġcorrectly": 6897,
      "95": 6898,
      "IL": 6899,
      "kins": 6900,
      "Ġtooth": 6901,
      "ĠPen": 6902,
      "ogle": 6903,
      "Ġspin": 6904,
      "Ġthereby": 6905,
      "Ġentertain": 6906,
      "ĠProfessor": 6907,
      "Ġstarts": 6908,
      "Ġfailed": 6909,
      "ĠOtherwise": 6910,
      "ĠTwo": 6911,
      "Ġchaos": 6912,
      "gu": 6913,
      "ĠDi": 6914,
      "Ġarmed": 6915,
      "Ġ195": 6916,
      "tenance": 6917,
      "Ġpositively": 6918,
      "Ġdatabase": 6919,
      "Data": 6920,
      "ford": 6921,
      "world": 6922,
      "ĠCS": 6923,
      "Ġ('": 6924,
      "Ġimmig": 6925,
      "Ġcomponent": 6926,
      "pa": 6927,
      "Ġecho": 6928,
      "atever": 6929,
      "Ġconscious": 6930,
      "Ġserver": 6931,
      "Ġsignal": 6932,
      "Ġparalle": 6933,
      "Ġsalt": 6934,
      "Ġadopt": 6935,
      "aturally": 6936,
      "IG": 6937,
      "Ġmyth": 6938,
      "Ġrecy": 6939,
      "otton": 6940,
      "Ġspo": 6941,
      "Ġrequiring": 6942,
      "Ġfacilities": 6943,
      "Ġcollecting": 6944,
      "Ġauthority": 6945,
      "Ġauthorities": 6946,
      "Ġinvestigation": 6947,
      "Ġagreement": 6948,
      "Ġadvantage": 6949,
      ":\\": 6950,
      "ouds": 6951,
      "Ġokay": 6952,
      "Ġ26": 6953,
      "Ġkinds": 6954,
      "Ġ70": 6955,
      "Ġfunding": 6956,
      "Ġlinks": 6957,
      "Ġcandid": 6958,
      "Ġtrouble": 6959,
      "body": 6960,
      "quality": 6961,
      "ĠGood": 6962,
      "Ġdisag": 6963,
      "Ġamb": 6964,
      "price": 6965,
      "Ġexpensive": 6966,
      "Ġartificial": 6967,
      "Ġexpressions": 6968,
      "Ġnarrow": 6969,
      "Ġcooperation": 6970,
      ":.": 6971,
      "EC": 6972,
      "normal": 6973,
      "pet": 6974,
      "Ġtired": 6975,
      "ĠAnother": 6976,
      "Ġgrown": 6977,
      "Ġmemor": 6978,
      "Ġconsideration": 6979,
      "which": 6980,
      "ĠMedical": 6981,
      "Ġangry": 6982,
      "Ġelder": 6983,
      "ka": 6984,
      "zed": 6985,
      "Ġsin": 6986,
      "icy": 6987,
      "stream": 6988,
      "Ġstim": 6989,
      "ulf": 6990,
      "Ġspring": 6991,
      "Ġgrapp": 6992,
      "Ġpursu": 6993,
      "araderie": 6994,
      "Ġempty": 6995,
      "His": 6996,
      "solving": 6997,
      "wing": 6998,
      "Ġgod": 6999,
      "Ġfewer": 7000,
      "Ġsignals": 7001,
      "Ġrecognizing": 7002,
      "Ġ)": 7003,
      "status": 7004,
      "Ġgal": 7005,
      "ĠLa": 7006,
      "ĠLondon": 7007,
      "ĠNet": 7008,
      "Ġeverywhere": 7009,
      "Ġcamaraderie": 7010,
      "uit": 7011,
      "verty": 7012,
      "ĠUt": 7013,
      "Ġequally": 7014,
      "Ġwriters": 7015,
      "Ġsequence": 7016,
      "ĠChildren": 7017,
      "Ġsupplies": 7018,
      "AD": 7019,
      "itual": 7020,
      "oup": 7021,
      "astern": 7022,
      "ĠDem": 7023,
      "Ġpoverty": 7024,
      "ĠSpace": 7025,
      "ĠCounty": 7026,
      "ĠDaisy": 7027,
      "Ġgun": 7028,
      "ĠBel": 7029,
      "Ġsecrets": 7030,
      "Ġbroke": 7031,
      "ĊĠĠĠĠĠĠĠĠĠĠĠĠĠĠĠĠĊĠĠĠĠĠĠĠĠĠĠĠ": 7032,
      "Ġrevealing": 7033,
      "App": 7034,
      "fly": 7035,
      "ĠMiss": 7036,
      "Ġdisput": 7037,
      "Ġelim": 7038,
      "Ġclaims": 7039,
      "connected": 7040,
      ".|": 7041,
      "bi": 7042,
      "Ġpray": 7043,
      "Ġbathing": 7044,
      "ache": 7045,
      "alled": 7046,
      "ĠJe": 7047,
      "Ġpupp": 7048,
      "ĠCongress": 7049,
      "En": 7050,
      "oor": 7051,
      "Ġpush": 7052,
      "olit": 7053,
      "Ġprofessor": 7054,
      "Ġintense": 7055,
      "Ġintended": 7056,
      "Ġiron": 7057,
      "oma": 7058,
      "Ġreform": 7059,
      "Ġreput": 7060,
      "neys": 7061,
      "Ġroof": 7062,
      "Ġblank": 7063,
      "Ġpassions": 7064,
      "apped": 7065,
      "Ġ{'": 7066,
      "Ġintegrity": 7067,
      "holders": 7068,
      "predict": 7069,
      "ĠAN": 7070,
      "Ġprove": 7071,
      "Ġusual": 7072,
      "ĠLou": 7073,
      "ĠAppro": 7074,
      "Ġsilence": 7075,
      "Ġpp": 7076,
      "Ġrely": 7077,
      "ifier": 7078,
      "Ġbeings": 7079,
      "ĠMass": 7080,
      "Ġhaz": 7081,
      "Ġbackgrounds": 7082,
      "Lesson": 7083,
      "rence": 7084,
      "isis": 7085,
      "Ġbatter": 7086,
      "Ġinhab": 7087,
      "Ġstun": 7088,
      "ĠNext": 7089,
      "Ġgoodbye": 7090,
      "Ġsafely": 7091,
      "Ġfrequent": 7092,
      "Ġdouble": 7093,
      "ĠCourt": 7094,
      "ĠSpanish": 7095,
      "bles": 7096,
      "nel": 7097,
      "Ġimper": 7098,
      "ĠConf": 7099,
      "ĠPhys": 7100,
      "RI": 7101,
      "ĠAdv": 7102,
      "Ġchoosing": 7103,
      "AP": 7104,
      "Acc": 7105,
      "roid": 7106,
      "ĠTex": 7107,
      "iday": 7108,
      "Ġstone": 7109,
      "ĠCurrent": 7110,
      "unk": 7111,
      "ĠMuseum": 7112,
      "Ġride": 7113,
      "ocation": 7114,
      "Ġexplicit": 7115,
      "Ġambit": 7116,
      "expert": 7117,
      "Ġminimize": 7118,
      "Ġdivided": 7119,
      "Ġphilosophy": 7120,
      "Bl": 7121,
      "Wow": 7122,
      "mark": 7123,
      "ĠPower": 7124,
      "Ġinstances": 7125,
      "Ġgrace": 7126,
      "Ġmatches": 7127,
      "Ġpromise": 7128,
      "Ġstands": 7129,
      "ĠIndigenous": 7130,
      "Ġbringing": 7131,
      "Ġalgorithms": 7132,
      "Ġpowers": 7133,
      "days": 7134,
      "mp": 7135,
      "ona": 7136,
      "Ġmild": 7137,
      "ints": 7138,
      "Ġflat": 7139,
      "Ġhumor": 7140,
      "Ġbreast": 7141,
      "Ġshaped": 7142,
      "Ġerrors": 7143,
      "Ġarrange": 7144,
      "Ġscenario": 7145,
      "Ġtells": 7146,
      "Ġmistakes": 7147,
      "Ġdrinking": 7148,
      "Ġsharp": 7149,
      "uce": 7150,
      "ÃŃ": 7151,
      "olf": 7152,
      "Ġstation": 7153,
      "ĠBas": 7154,
      "Ġranging": 7155,
      "Ġhadn": 7156,
      "Ġcommitted": 7157,
      "ensus": 7158,
      "Ġbreaking": 7159,
      "Ġtruck": 7160,
      "ĠTechnology": 7161,
      "Ġmountain": 7162,
      "field": 7163,
      "Ġears": 7164,
      "ĠMem": 7165,
      "Ġwashed": 7166,
      "Ġsuit": 7167,
      "Ġdisrupt": 7168,
      "ĠJen": 7169,
      "Ġrealizing": 7170,
      "ĠExcited": 7171,
      "Ġcapture": 7172,
      "Ġsearching": 7173,
      "Ġhouses": 7174,
      "Ġvoices": 7175,
      "rm": 7176,
      "Ġmur": 7177,
      "Ġspending": 7178,
      "Ġspecialized": 7179,
      "Ġcrisis": 7180,
      "Ġethics": 7181,
      "Ġunders": 7182,
      "Ġsudden": 7183,
      "Ġreferred": 7184,
      "Ġri": 7185,
      "obal": 7186,
      "Ġproducing": 7187,
      "ĠSammy": 7188,
      "Ġindustries": 7189,
      "Ġcelebrate": 7190,
      "Ġdomin": 7191,
      "ĠAustralia": 7192,
      "itudes": 7193,
      "ena": 7194,
      "Ġfro": 7195,
      "url": 7196,
      "ĠElect": 7197,
      "Ġabuse": 7198,
      "Ġimpossible": 7199,
      "Ġremoved": 7200,
      "ĠĊĊĠĠĠ": 7201,
      "Ġassert": 7202,
      "Ġcredit": 7203,
      "78": 7204,
      "Ġpushing": 7205,
      "ansion": 7206,
      "Ġchildhood": 7207,
      "Ġthoughtful": 7208,
      "ĠScore": 7209,
      "Ġliquid": 7210,
      "long": 7211,
      "lines": 7212,
      "pie": 7213,
      "erior": 7214,
      "Ġbeach": 7215,
      "Ġ28": 7216,
      "earing": 7217,
      "Ġdecor": 7218,
      "Ġchest": 7219,
      "Ġpromising": 7220,
      "Ġreveal": 7221,
      "Ġlady": 7222,
      "Ġbrown": 7223,
      "acies": 7224,
      "ĠLevel": 7225,
      "ĠCleaning": 7226,
      "ĠAcadem": 7227,
      "ĠGovernment": 7228,
      "32": 7229,
      "Look": 7230,
      "Ġsed": 7231,
      "isc": 7232,
      "ari": 7233,
      "ĠBay": 7234,
      "ĠDel": 7235,
      "ĠUnfortunately": 7236,
      "ĠProject": 7237,
      "ĠImp": 7238,
      "Ġtrials": 7239,
      "Ġimprovements": 7240,
      "ĠCentral": 7241,
      "Ġprobability": 7242,
      "lig": 7243,
      "lights": 7244,
      "Ġlose": 7245,
      "Ġexposed": 7246,
      "Ġ2003": 7247,
      "Ġimmers": 7248,
      "Ġpercentage": 7249,
      "Ġsongs": 7250,
      "Ġexcessive": 7251,
      "Ġcart": 7252,
      "Ġfan": 7253,
      "othe": 7254,
      "ptions": 7255,
      "Ġexperiencing": 7256,
      "Ġconsiderations": 7257,
      "Ġhundreds": 7258,
      "Remember": 7259,
      "Based": 7260,
      "Ġlake": 7261,
      "Ġque": 7262,
      "Ġsupported": 7263,
      "Ġthoughtfully": 7264,
      "Ġimplemented": 7265,
      "Ġmarkets": 7266,
      "Ġabsol": 7267,
      "Ġlaun": 7268,
      "Ġhighlighting": 7269,
      "Ind": 7270,
      "Reg": 7271,
      "calcul": 7272,
      "fts": 7273,
      "such": 7274,
      "viet": 7275,
      "isher": 7276,
      "unny": 7277,
      "emic": 7278,
      "ĠWind": 7279,
      "ĠNote": 7280,
      "Ġscre": 7281,
      "Ġnewsp": 7282,
      "Ġinclus": 7283,
      "Ġyounger": 7284,
      "Ġmatrix": 7285,
      "Ġmusical": 7286,
      "Ġcomplexities": 7287,
      "Ġopinion": 7288,
      "ĠEnvironmental": 7289,
      "elihood": 7290,
      "Ġduration": 7291,
      "Ġconvey": 7292,
      "actions": 7293,
      "anguage": 7294,
      "Ġhearts": 7295,
      "Ġannounced": 7296,
      "size": 7297,
      "table": 7298,
      "Ã¡": 7299,
      "ora": 7300,
      "Ġdil": 7301,
      "Ġwhereas": 7302,
      "privacy": 7303,
      "ĠSoon": 7304,
      "Ġaccessible": 7305,
      "Ġpreventing": 7306,
      "Ġreminding": 7307,
      "Ġmarketing": 7308,
      "ĠInternet": 7309,
      "Ġefficiently": 7310,
      "ĠMexico": 7311,
      "current": 7312,
      "Ġsighed": 7313,
      "icking": 7314,
      "Ġcomment": 7315,
      "Ġdoors": 7316,
      "ishment": 7317,
      "ventually": 7318,
      "Ġcorn": 7319,
      "Ġgrateful": 7320,
      "ĠIsland": 7321,
      "Ġantib": 7322,
      "ĠFrank": 7323,
      "Ġvacc": 7324,
      "ĠFebruary": 7325,
      "ĠHarmony": 7326,
      "organ": 7327,
      "Ġluck": 7328,
      "ĠKen": 7329,
      "Ġcozy": 7330,
      "model": 7331,
      "Oh": 7332,
      "Ġtheories": 7333,
      "Ġpil": 7334,
      "Ġtom": 7335,
      "rad": 7336,
      "Ġstem": 7337,
      "Ġalive": 7338,
      "rub": 7339,
      "Ġobsc": 7340,
      "\"\"\"": 7341,
      "Ġreflection": 7342,
      "Ġruns": 7343,
      "ikely": 7344,
      "Ġmajority": 7345,
      "Ġmoisture": 7346,
      "Ġinstruments": 7347,
      "Alex": 7348,
      "alian": 7349,
      "Ġdut": 7350,
      "ĠOh": 7351,
      "Ġincident": 7352,
      "Ġpersons": 7353,
      "Ġattending": 7354,
      "ĠEnergy": 7355,
      "Charlie": 7356,
      "====": 7357,
      "Ġmanufacture": 7358,
      "ocolate": 7359,
      "reatment": 7360,
      "Ġrelief": 7361,
      "ĠSoviet": 7362,
      "Ġdepth": 7363,
      "Ġexception": 7364,
      "Ġhabitat": 7365,
      "Ġobservations": 7366,
      "ael": 7367,
      "Ġbread": 7368,
      "Ġmir": 7369,
      "Ġharsh": 7370,
      "umph": 7371,
      "ĠWork": 7372,
      "Ġwilling": 7373,
      "Ġinstruction": 7374,
      "Ġsymptom": 7375,
      "Ġcleaned": 7376,
      "Ġhousehold": 7377,
      "Ġlimitations": 7378,
      "yn": 7379,
      "Ġid": 7380,
      "Ġ190": 7381,
      "Ġgenerated": 7382,
      "Ġorganic": 7383,
      "Ġvehicle": 7384,
      "Jack": 7385,
      "eat": 7386,
      "Ġlingu": 7387,
      "ĠMag": 7388,
      "Ġsport": 7389,
      "Ġhandwashing": 7390,
      "Ġworlds": 7391,
      "Ġelev": 7392,
      "Ġstorytelling": 7393,
      "Ġassessment": 7394,
      "Ġtire": 7395,
      "Ġfif": 7396,
      "Ġadequ": 7397,
      "Ġdispos": 7398,
      "Ġresulted": 7399,
      "Ġ45": 7400,
      "Ġconcerning": 7401,
      "Ġobserving": 7402,
      "Ġfulf": 7403,
      "Ġresponded": 7404,
      "Ġsacr": 7405,
      "ĠOctober": 7406,
      "car": 7407,
      "win": 7408,
      "rep": 7409,
      "Ġpig": 7410,
      "andon": 7411,
      "Ġclouds": 7412,
      "Ġallerg": 7413,
      "(\"-": 7414,
      "ĠOnline": 7415,
      "Ġsummary": 7416,
      "Ġhusband": 7417,
      "ĠSk": 7418,
      "ĠJer": 7419,
      "Ġorganisms": 7420,
      "ttps": 7421,
      "Ġcamera": 7422,
      "Of": 7423,
      "rete": 7424,
      "Ġsen": 7425,
      "iture": 7426,
      "Ġbask": 7427,
      "add": 7428,
      "istan": 7429,
      "ained": 7430,
      "plot": 7431,
      "Ġlearners": 7432,
      "Ġinterconnected": 7433,
      "Ġcalling": 7434,
      "RO": 7435,
      "ya": 7436,
      "ishes": 7437,
      "compass": 7438,
      "rowing": 7439,
      "Ġinsurance": 7440,
      "Ġreduction": 7441,
      "Ġcontributed": 7442,
      "ĠPlus": 7443,
      "Ġreinfor": 7444,
      "MI": 7445,
      "free": 7446,
      "Ġtough": 7447,
      "ĠIran": 7448,
      "Ġdish": 7449,
      "Ġjur": 7450,
      "Ġdevelopments": 7451,
      "ĊĊĠĠĠĠĠĠĠĠĠĠĠ": 7452,
      "Ġsister": 7453,
      "ione": 7454,
      "lements": 7455,
      "ĠAge": 7456,
      "Ġintent": 7457,
      "Ġplate": 7458,
      "Ġsurve": 7459,
      "Ġfinance": 7460,
      "'],": 7461,
      "Ġalternatives": 7462,
      "Ġindependence": 7463,
      "ĠSeeing": 7464,
      "Max": 7465,
      "ĠTur": 7466,
      "abel": 7467,
      "ĠOld": 7468,
      "uality": 7469,
      "Ġbrill": 7470,
      "ĠConsequently": 7471,
      "Ġlegacy": 7472,
      "Ġgrasp": 7473,
      "Ġaffects": 7474,
      "Ġperfectly": 7475,
      "Ġlifestyle": 7476,
      "Se": 7477,
      "Sp": 7478,
      "ste": 7479,
      "umm": 7480,
      "Ġuncover": 7481,
      "Ġ->": 7482,
      "Ġemployment": 7483,
      "Ġinvestigate": 7484,
      "Ġmarginal": 7485,
      "Hey": 7486,
      "fra": 7487,
      "edge": 7488,
      "Ġlon": 7489,
      "ĠTV": 7490,
      "imens": 7491,
      "igure": 7492,
      "ĠAD": 7493,
      "ĠScient": 7494,
      "Ġcomplicated": 7495,
      "ĠRef": 7496,
      "Ġresolution": 7497,
      "Ġtea": 7498,
      "Ġconsists": 7499,
      "Ġextensive": 7500,
      "Ġresearching": 7501,
      "ĠEmma": 7502,
      "Ġbeginner": 7503,
      "Ġgradually": 7504,
      "Ġinfluenced": 7505,
      "Ġestimated": 7506,
      "Ġfashion": 7507,
      "rooms": 7508,
      "access": 7509,
      "osa": 7510,
      "Ġdiss": 7511,
      "ĠNon": 7512,
      "Ġevolved": 7513,
      "Ġexperiments": 7514,
      "__\":": 7515,
      "Ġscientist": 7516,
      "Ġwonders": 7517,
      "Ġargue": 7518,
      "Ġhorse": 7519,
      "Ġfacilitate": 7520,
      "Mod": 7521,
      "Ġaest": 7522,
      "ĠĠĠĠĠĠ": 7523,
      "Ġnurt": 7524,
      "Ġstro": 7525,
      "ĠMil": 7526,
      "berg": 7527,
      "ĠStre": 7528,
      "Ġmeticul": 7529,
      "Ġcontinu": 7530,
      "Ġappreciated": 7531,
      "Ġclaimed": 7532,
      "Ġtissues": 7533,
      "steps": 7534,
      "Ġelectrical": 7535,
      "99": 7536,
      "Good": 7537,
      "cers": 7538,
      "acific": 7539,
      "Ġ27": 7540,
      "Ġinspect": 7541,
      "Ġrequirement": 7542,
      "Ġdiscovering": 7543,
      "ĠClean": 7544,
      "Ġjumped": 7545,
      "Ġcontrolled": 7546,
      "Ġagriculture": 7547,
      "Ġadversity": 7548,
      "ĠTexas": 7549,
      "cling": 7550,
      "inity": 7551,
      "ndrome": 7552,
      "Ġpou": 7553,
      "ĠĠĠĠĠ": 7554,
      "Ġnaturally": 7555,
      "etics": 7556,
      "ĠSal": 7557,
      "Ġenforce": 7558,
      "ĠForm": 7559,
      "ocking": 7560,
      "Ġteen": 7561,
      "Ġtele": 7562,
      "Ġovercome": 7563,
      "Ġconcerned": 7564,
      "Ġrecorded": 7565,
      "Ġexclaimed": 7566,
      "Ġcolonial": 7567,
      "().": 7568,
      "Ġhat": 7569,
      "ĠCast": 7570,
      "Ġ\"__": 7571,
      "Ġseat": 7572,
      "Ġtracking": 7573,
      "Ġexpenses": 7574,
      "Ġcollected": 7575,
      "ĠClass": 7576,
      "Ġvisitors": 7577,
      "Ġlinear": 7578,
      "Ġbreathing": 7579,
      "ship": 7580,
      "inc": 7581,
      "ini": 7582,
      "Ġchair": 7583,
      "Ġshopping": 7584,
      "Ġabandon": 7585,
      "Ġkil": 7586,
      "oolean": 7587,
      "Ġpositions": 7588,
      "Ġputting": 7589,
      "ĠSara": 7590,
      "ĠDisc": 7591,
      "Ġneighbors": 7592,
      "Ġsections": 7593,
      "dat": 7594,
      "fe": 7595,
      "Ġwife": 7596,
      "rovers": 7597,
      "Ġstuff": 7598,
      "ĠAut": 7599,
      "ĠSen": 7600,
      "Ġflavor": 7601,
      "Ġfunctional": 7602,
      "Ġ2002": 7603,
      "Ġvolume": 7604,
      "Ġforests": 7605,
      "Ġvirus": 7606,
      "Ġacknowledging": 7607,
      "][": 7608,
      "cut": 7609,
      "Ġmine": 7610,
      "Ġmaps": 7611,
      "ulating": 7612,
      "ustom": 7613,
      "ells": 7614,
      "Ġarmy": 7615,
      "Ġattached": 7616,
      "roscop": 7617,
      "Ġ2001": 7618,
      "Ġlegs": 7619,
      "Ġbiological": 7620,
      "ographical": 7621,
      "Ġavailability": 7622,
      "security": 7623,
      "Ġmonitor": 7624,
      "foot": 7625,
      "elia": 7626,
      "Ġgall": 7627,
      "ado": 7628,
      "Ġrating": 7629,
      "Ġshut": 7630,
      "Ġdetected": 7631,
      "Ġcoal": 7632,
      "Ġtreating": 7633,
      "Ġsubstance": 7634,
      "Ġpeaceful": 7635,
      "Ġmathematics": 7636,
      "Ġpulled": 7637,
      "Ġsneezing": 7638,
      "Ġbegins": 7639,
      "Mr": 7640,
      "uct": 7641,
      "ague": 7642,
      "Ġagency": 7643,
      "Ġlasting": 7644,
      "Ġtoxic": 7645,
      "ĠInitialize": 7646,
      "ĠAccess": 7647,
      "Ġpride": 7648,
      "\"))": 7649,
      "rick": 7650,
      "Ġmaintenance": 7651,
      "ĠChecks": 7652,
      "Ġinfluences": 7653,
      "Ġdiagnosis": 7654,
      "Ġwarning": 7655,
      "CO": 7656,
      "Te": 7657,
      "rid": 7658,
      "Ġintently": 7659,
      "ĠUnder": 7660,
      "Ġarise": 7661,
      "cules": 7662,
      "Ġbridge": 7663,
      "ĠTherefore": 7664,
      "Ġcustoms": 7665,
      "Ġsmoothly": 7666,
      "ĠRussia": 7667,
      "Ġcrops": 7668,
      "Ġpreparation": 7669,
      "fol": 7670,
      "la": 7671,
      "Ġwhisp": 7672,
      "Ġsuc": 7673,
      "Ġequality": 7674,
      "Ġparticipation": 7675,
      "Ġsurrounded": 7676,
      "=='": 7677,
      "Ġrows": 7678,
      "Ġbranch": 7679,
      "36": 7680,
      "cost": 7681,
      "Ġloyal": 7682,
      "Ġaloud": 7683,
      "acher": 7684,
      "Ġrural": 7685,
      "ograp": 7686,
      "ĠJud": 7687,
      "Ġdistances": 7688,
      "ĠAtl": 7689,
      "ĠAtt": 7690,
      "Ġdestination": 7691,
      "Ġagricultural": 7692,
      "ĠHenry": 7693,
      "Reflecting": 7694,
      "American": 7695,
      "ca": 7696,
      "oving": 7697,
      "{}": 7698,
      "ĠMi": 7699,
      "Ġcharm": 7700,
      "ĠGroup": 7701,
      "Ġ29": 7702,
      "Ġcompos": 7703,
      "Ġextended": 7704,
      "Ġpresident": 7705,
      "Ġintegrating": 7706,
      "Ġconsumers": 7707,
      "ĠStudy": 7708,
      "Ġgrabbed": 7709,
      "ffective": 7710,
      "Ġcrowd": 7711,
      "ĠVirginia": 7712,
      "ĠDet": 7713,
      "ĠJim": 7714,
      "Cont": 7715,
      "sequent": 7716,
      "Ġrepeated": 7717,
      "Ġframework": 7718,
      "Every": 7719,
      "PS": 7720,
      "TH": 7721,
      "ped": 7722,
      "Ġbmi": 7723,
      "ĠLong": 7724,
      "ĠLiter": 7725,
      "Ġdisaster": 7726,
      "Ġimpressive": 7727,
      "Ġagencies": 7728,
      "Ġvisible": 7729,
      "ĊĠĠĠĠĠĠĠĠĠĠĠĠĠ": 7730,
      "Ġdesigning": 7731,
      "Ġstrategic": 7732,
      "Ġnarrative": 7733,
      "friendly": 7734,
      "Not": 7735,
      "hum": 7736,
      "asal": 7737,
      "rape": 7738,
      "ĠCath": 7739,
      "oples": 7740,
      "Ġshell": 7741,
      "Ġphase": 7742,
      "Ġaccounts": 7743,
      "Ġprocedure": 7744,
      "Ġadvantages": 7745,
      "Hello": 7746,
      "cies": 7747,
      "Ġfill": 7748,
      "Ġbones": 7749,
      "Ġgaming": 7750,
      "ĠDist": 7751,
      "ĠNASA": 7752,
      "Ġspreading": 7753,
      "Ġpredictions": 7754,
      "html": 7755,
      "dated": 7756,
      "eday": 7757,
      "Ġfans": 7758,
      "random": 7759,
      "Ġru": 7760,
      "Ġflight": 7761,
      "Ġdogs": 7762,
      "Ġcenters": 7763,
      "Ġdemands": 7764,
      "Example": 7765,
      "ĠModern": 7766,
      "37": 7767,
      "cript": 7768,
      "mates": 7769,
      "Ġtick": 7770,
      "Ġselling": 7771,
      "stract": 7772,
      "opt": 7773,
      "arts": 7774,
      "Ġremote": 7775,
      "Ġsurvey": 7776,
      "ĠExamples": 7777,
      "Ġavoiding": 7778,
      "Ġphotograph": 7779,
      "Ġidentifying": 7780,
      "Ġtowns": 7781,
      "Ġmitig": 7782,
      "pes": 7783,
      "you": 7784,
      "Ġmood": 7785,
      "Ġhung": 7786,
      "racy": 7787,
      "osh": 7788,
      "Ġfunny": 7789,
      "Ġhappiness": 7790,
      "Ġprominent": 7791,
      "Ġharmon": 7792,
      "Ġaudio": 7793,
      "olester": 7794,
      "Medium": 7795,
      "rout": 7796,
      "ĠCap": 7797,
      "ĠPsych": 7798,
      "ĠBer": 7799,
      "ĠFunction": 7800,
      "ĠOpen": 7801,
      "Ġrocks": 7802,
      "Ġactively": 7803,
      "Ġfirsthand": 7804,
      "Ġmoderate": 7805,
      "Ġminute": 7806,
      "oval": 7807,
      "Ġorigins": 7808,
      "ĠFranc": 7809,
      "ctu": 7810,
      "ĠEnd": 7811,
      "ĠDiv": 7812,
      "ĠFact": 7813,
      "Ġplayer": 7814,
      "Ġcontinuing": 7815,
      "update": 7816,
      "Ġbiology": 7817,
      "mediate": 7818,
      "ĠHistorical": 7819,
      "ĠRussian": 7820,
      "Ġelderly": 7821,
      "olesterol": 7822,
      "atitude": 7823,
      "Ġframe": 7824,
      "ĠPost": 7825,
      "Ġ22": 7826,
      "Ġhappily": 7827,
      "Ġguard": 7828,
      "Ġgirls": 7829,
      "Ġachieved": 7830,
      "Ġfunds": 7831,
      "Ġcorrespond": 7832,
      "TMs": 7833,
      "Ġinstrument": 7834,
      "ĠService": 7835,
      "Ġclients": 7836,
      "Ġcreations": 7837,
      "Ġdistant": 7838,
      "Ġprevention": 7839,
      "ĠLearning": 7840,
      "Ġwip": 7841,
      "Ġgaz": 7842,
      "ĠFoot": 7843,
      "Ġworse": 7844,
      "Ġpractition": 7845,
      "Ġbusy": 7846,
      "Ġcrim": 7847,
      "ĠMedia": 7848,
      "\"):": 7849,
      "van": 7850,
      "Ġtheore": 7851,
      "Ġfishing": 7852,
      "ĠTake": 7853,
      "olt": 7854,
      "Ġends": 7855,
      "Ġmanif": 7856,
      "Ġtwenty": 7857,
      "Ġhealthier": 7858,
      "Ġdistur": 7859,
      "Ġmeasured": 7860,
      "Ġscenes": 7861,
      "ĠGoogle": 7862,
      "Ġextremely": 7863,
      "vas": 7864,
      "Ġtact": 7865,
      "Ġcert": 7866,
      "Ġreward": 7867,
      "Ġgro": 7868,
      "Ġvote": 7869,
      "ĠBible": 7870,
      "Ġrice": 7871,
      "ĠUltimately": 7872,
      "Ġachieving": 7873,
      "ĠBlue": 7874,
      "Ġdisappointed": 7875,
      "Ġnutrition": 7876,
      "gon": 7877,
      "Ġ%": 7878,
      "erves": 7879,
      "Ġfurn": 7880,
      "amps": 7881,
      "Ġnoted": 7882,
      "Ġsomeday": 7883,
      "ĠRad": 7884,
      "ĠGal": 7885,
      "Ġmeets": 7886,
      "phone": 7887,
      "ĠNews": 7888,
      "Ġexpressing": 7889,
      "Ġstores": 7890,
      "Pl": 7891,
      "working": 7892,
      "Ġtang": 7893,
      "Ġpull": 7894,
      "Ġhall": 7895,
      "Ġgerm": 7896,
      "Ġisland": 7897,
      "amount": 7898,
      "Ġorange": 7899,
      "acc": 7900,
      "umps": 7901,
      "Ġ((": 7902,
      "Ġspray": 7903,
      "ĠLatin": 7904,
      "ongue": 7905,
      "Ġapparent": 7906,
      "Ġoutdo": 7907,
      "Ġcentered": 7908,
      "Ġtypical": 7909,
      "Ġdropped": 7910,
      "Ġinclusivity": 7911,
      "personal": 7912,
      "lets": 7913,
      "icked": 7914,
      "ago": 7915,
      "Ġcontrovers": 7916,
      "Ġscan": 7917,
      "ĠStand": 7918,
      "Ġswimming": 7919,
      "Ġdirector": 7920,
      "patient": 7921,
      "Ġfingers": 7922,
      ".;": 7923,
      "38": 7924,
      "lers": 7925,
      "Ġtwe": 7926,
      "itivity": 7927,
      "aser": 7928,
      "ivia": 7929,
      "Ġstages": 7930,
      "Ġtriumph": 7931,
      "Ġwoods": 7932,
      "Ġnutrients": 7933,
      "pread": 7934,
      "orrect": 7935,
      "Ġdiving": 7936,
      "ĠRights": 7937,
      "Ġbalanced": 7938,
      "Ġconstra": 7939,
      "Ġcombat": 7940,
      "Ġadaptability": 7941,
      "Ġhonor": 7942,
      "Ġsurvive": 7943,
      "Ġattempts": 7944,
      "Ġmovies": 7945,
      "Ġsucceed": 7946,
      "BN": 7947,
      "SI": 7948,
      "Ġcater": 7949,
      "ita": 7950,
      "Ġinher": 7951,
      "Ġgiant": 7952,
      "ĠLord": 7953,
      "mean": 7954,
      "Ġdistingu": 7955,
      "Ġmeetings": 7956,
      "spec": 7957,
      "ĠRobert": 7958,
      "amiliar": 7959,
      "BT": 7960,
      "Ġdie": 7961,
      "Ġheated": 7962,
      "Ġproport": 7963,
      "Ġimpl": 7964,
      "Ġflavors": 7965,
      "Ġpoetry": 7966,
      "Ġbreaks": 7967,
      "Ġrespectively": 7968,
      "Ġprotected": 7969,
      "Ġparticipating": 7970,
      "Ġconsumer": 7971,
      "breaking": 7972,
      "Ġrevelation": 7973,
      "Ġpure": 7974,
      "oted": 7975,
      "Ġalter": 7976,
      "Ġkill": 7977,
      "ĠAsk": 7978,
      "Ġmarks": 7979,
      "idespread": 7980,
      "Ġstrengths": 7981,
      "Ġenthusiast": 7982,
      "Feeling": 7983,
      "Ġdismiss": 7984,
      "Ġdisagree": 7985,
      "sw": 7986,
      "Ġcas": 7987,
      "umes": 7988,
      "Ġ(`": 7989,
      "ĠThose": 7990,
      "ipher": 7991,
      "Ġinvas": 7992,
      "Ġcreature": 7993,
      "Ġnecessarily": 7994,
      "Ġcompetitive": 7995,
      "Ġstakeholders": 7996,
      "Many": 7997,
      "find": 7998,
      "uge": 7999,
      "rays": 8000,
      "ĠSue": 8001,
      "ĠSym": 8002,
      "emale": 8003,
      "Ġcompare": 8004,
      "pring": 8005,
      "Ġattacks": 8006,
      "Ġnumer": 8007,
      "ĠWeather": 8008,
      "Ġmembr": 8009,
      "Ġdetermining": 8010,
      "Ġmystery": 8011,
      "Ġsubstantial": 8012,
      "distance": 8013,
      "rants": 8014,
      "uzz": 8015,
      "icate": 8016,
      "Ġhopped": 8017,
      "ĠTry": 8018,
      "abil": 8019,
      "Ġencompass": 8020,
      "ĠVict": 8021,
      "Ġcertainly": 8022,
      "ĠColl": 8023,
      "Ġfarmer": 8024,
      "ĠUpdates": 8025,
      "Ġtouching": 8026,
      "Ġmeasurements": 8027,
      "Ġderived": 8028,
      "Ġrecipes": 8029,
      "how": 8030,
      "last": 8031,
      "Ġ]": 8032,
      "Ġgest": 8033,
      "orted": 8034,
      "Ġclassic": 8035,
      "Ġdomestic": 8036,
      "ĠStudies": 8037,
      "prene": 8038,
      "ĠMommy": 8039,
      "Ġescape": 8040,
      "Ġecosystems": 8041,
      "Ġundersc": 8042,
      "34": 8043,
      "SA": 8044,
      "reprene": 8045,
      "roph": 8046,
      "ĠPan": 8047,
      "ĠPass": 8048,
      "Ġseam": 8049,
      "Ġraising": 8050,
      "Ġdepos": 8051,
      "Ġelection": 8052,
      "Ġmedications": 8053,
      "Ġdietary": 8054,
      "Ġdefinition": 8055,
      "Ġmolecules": 8056,
      "Ġdelivery": 8057,
      "fish": 8058,
      "Ġtensions": 8059,
      "oric": 8060,
      "elly": 8061,
      "Ġwhatever": 8062,
      "ĠBro": 8063,
      "ĠItalian": 8064,
      "Ġmostly": 8065,
      "Ġcircul": 8066,
      "Ġcircle": 8067,
      "Ġacceptance": 8068,
      "Ġmanufacturing": 8069,
      "ĠCharles": 8070,
      "food": 8071,
      "https": 8072,
      "sm": 8073,
      "rec": 8074,
      "onents": 8075,
      "Ġhide": 8076,
      "Ġhorm": 8077,
      "Ġnan": 8078,
      "ĠPacific": 8079,
      "ĠNature": 8080,
      "Ġages": 8081,
      "Ġmeditation": 8082,
      "Ġendless": 8083,
      "Ġsuperior": 8084,
      "Ġproudly": 8085,
      "ĠCarol": 8086,
      "Ġastron": 8087,
      "determine": 8088,
      "iner": 8089,
      "Ġult": 8090,
      "Ġconcl": 8091,
      "Ġconvert": 8092,
      "Ġrivers": 8093,
      "Ġuniform": 8094,
      "Ġassume": 8095,
      "real": 8096,
      "Ġboolean": 8097,
      "Ġconclud": 8098,
      "ĠCre": 8099,
      "ĠMel": 8100,
      "ĠLake": 8101,
      "ĠNum": 8102,
      "ĠNative": 8103,
      "Ġrelie": 8104,
      "Ġgrade": 8105,
      "Ġsubsequent": 8106,
      "auth": 8107,
      "ĠEngine": 8108,
      "Ġcritically": 8109,
      "Ġtouched": 8110,
      "ĠExploring": 8111,
      "ĠSpecial": 8112,
      "ĠOrganization": 8113,
      "ĠEmpire": 8114,
      "MS": 8115,
      "hy": 8116,
      "Ġcake": 8117,
      "Ġdrop": 8118,
      "otics": 8119,
      "Ġbrush": 8120,
      "Ġconfirm": 8121,
      "Ġobservation": 8122,
      "Ġinteractive": 8123,
      "Ġadopted": 8124,
      "Su": 8125,
      "aked": 8126,
      "chers": 8127,
      "dr": 8128,
      "Ġdivid": 8129,
      "Ġlun": 8130,
      "ĠCold": 8131,
      "cium": 8132,
      "ĠName": 8133,
      "Ġdesire": 8134,
      "Ġende": 8135,
      "Ġdepression": 8136,
      "Ġtrend": 8137,
      "Ġsoul": 8138,
      "Ġunfold": 8139,
      "Ġunlikely": 8140,
      "calculate": 8141,
      "Ġwest": 8142,
      "Ġbite": 8143,
      "Ġreject": 8144,
      "eles": 8145,
      "usiness": 8146,
      "Ġdiscount": 8147,
      "Ġinvited": 8148,
      "Ġglad": 8149,
      "Ġidentities": 8150,
      "Ġ75": 8151,
      "Ġargued": 8152,
      "Ġsatell": 8153,
      "ĠAvoid": 8154,
      "Ġhypot": 8155,
      "Ġphenomena": 8156,
      "39": 8157,
      "mes": 8158,
      "erative": 8159,
      "ĠAPI": 8160,
      "ĠFort": 8161,
      "Ġcomposition": 8162,
      "Ġsupports": 8163,
      "Ġmoves": 8164,
      "Ġcourses": 8165,
      "Ġ65": 8166,
      "Ġfocuses": 8167,
      "Ġphysics": 8168,
      "Ġcapabilities": 8169,
      "Ġpressing": 8170,
      "Ġinnoc": 8171,
      "ĠFlossing": 8172,
      "Ġselecting": 8173,
      "Ġsoldiers": 8174,
      "rus": 8175,
      "Ġsplit": 8176,
      "Ġtherm": 8177,
      "Ġpump": 8178,
      "Ġbool": 8179,
      "imer": 8180,
      "ĠCode": 8181,
      "Ġvan": 8182,
      "Ġunless": 8183,
      "flossing": 8184,
      "Ġeducators": 8185,
      "ĠEmbra": 8186,
      "Ġcouns": 8187,
      "Ġfixed": 8188,
      "Ġmoistur": 8189,
      "PD": 8190,
      "group": 8191,
      "Ġmamm": 8192,
      "ĠSqu": 8193,
      "Ġchocolate": 8194,
      "Ġate": 8195,
      "Ġhaven": 8196,
      "eye": 8197,
      "ĠFlor": 8198,
      "Ġvarying": 8199,
      "sembly": 8200,
      "lo": 8201,
      "message": 8202,
      "height": 8203,
      "ĠBal": 8204,
      "arness": 8205,
      "auc": 8206,
      "Ġthank": 8207,
      "ĠAnn": 8208,
      "Ġmini": 8209,
      "Ġdamaged": 8210,
      "ĊĠĠĠĠĠĠĠĠĠĠĠĠĠĠĠĠĠĠĠĠĠĠĠ": 8211,
      "Ġjuvenile": 8212,
      "eal": 8213,
      "host": 8214,
      "Ġwidespread": 8215,
      "ĠIll": 8216,
      "Ġinfluential": 8217,
      "ĠColor": 8218,
      "Ġvictory": 8219,
      "Ġfantastic": 8220,
      "Ġschedul": 8221,
      "taking": 8222,
      "ĠEconom": 8223,
      "ĊĠĠĠĠĠĠĠĠĠĠ": 8224,
      "Ġperman": 8225,
      "Ġrose": 8226,
      "Ġtransition": 8227,
      "clop": 8228,
      "Ġmoon": 8229,
      "Ġ186": 8230,
      "ĠBeaut": 8231,
      "Although": 8232,
      "Ġacceptable": 8233,
      "Ġemphasizing": 8234,
      "Ġpurchase": 8235,
      "uis": 8236,
      "under": 8237,
      "vision": 8238,
      "zen": 8239,
      "Ġconven": 8240,
      "ĠHIV": 8241,
      "cience": 8242,
      "aste": 8243,
      "Ġunne": 8244,
      "Today": 8245,
      "Ġnob": 8246,
      "Ġyummy": 8247,
      "ĠPeter": 8248,
      "Ġsaving": 8249,
      "ferent": 8250,
      "scale": 8251,
      "Ġ{}": 8252,
      "Ġcovering": 8253,
      "join": 8254,
      "igorous": 8255,
      "Am": 8256,
      "Mon": 8257,
      "worth": 8258,
      "orph": 8259,
      "ĠCase": 8260,
      "Ġsaved": 8261,
      "Ġuniversity": 8262,
      "example": 8263,
      "azz": 8264,
      "Ġconfir": 8265,
      "Ġconfusion": 8266,
      "Ġoperate": 8267,
      "Ġcollaborative": 8268,
      "Ġevaluation": 8269,
      "Ġcodes": 8270,
      "symptoms": 8271,
      "Ġtip": 8272,
      "onym": 8273,
      "ceptions": 8274,
      "Ġlarg": 8275,
      "Ġtested": 8276,
      "Ġenhanced": 8277,
      "Ġvideos": 8278,
      "Ġstunning": 8279,
      "ĊĠ": 8280,
      "Ġdent": 8281,
      "Ġreci": 8282,
      "igious": 8283,
      "otypes": 8284,
      "ĠWash": 8285,
      "Ġregist": 8286,
      "Ġpassage": 8287,
      "Ġeffectiveness": 8288,
      "Ġreplaced": 8289,
      "Ġjudgment": 8290,
      "ĠPolit": 8291,
      "ĠLouis": 8292,
      "Ġinhabit": 8293,
      "Ext": 8294,
      "Rel": 8295,
      "TS": 8296,
      "nov": 8297,
      "Ġtut": 8298,
      "Ġinequ": 8299,
      "ĠĠĠĠĊĠĠĠĠĊĠĠĠ": 8300,
      "choice": 8301,
      "ĠMill": 8302,
      "Ġboost": 8303,
      "ĠShould": 8304,
      "Ġminimal": 8305,
      "Ġintroduce": 8306,
      "Ġcontexts": 8307,
      "Ġportion": 8308,
      "Ġappeal": 8309,
      "Ġculinary": 8310,
      "Ġchannels": 8311,
      "ĠDetermines": 8312,
      "iations": 8313,
      "erge": 8314,
      "aylor": 8315,
      "ĠSign": 8316,
      "Ġorient": 8317,
      "ĠBilly": 8318,
      "ĠFace": 8319,
      "ĠComput": 8320,
      "Ġanswered": 8321,
      "UN": 8322,
      "rine": 8323,
      "orter": 8324,
      "Ġcloth": 8325,
      "ĠKnow": 8326,
      "Ġdescript": 8327,
      "Ġaccommod": 8328,
      "Ġnovels": 8329,
      "Ġmobile": 8330,
      "ĠConnect": 8331,
      "Ġgalax": 8332,
      ".||": 8333,
      "dist": 8334,
      "fast": 8335,
      "net": 8336,
      "pal": 8337,
      "west": 8338,
      "Ġaims": 8339,
      "Ġcotton": 8340,
      "Ġwaved": 8341,
      "ĠIr": 8342,
      "agram": 8343,
      "Ġ\",": 8344,
      "ĠBC": 8345,
      "Ġinterventions": 8346,
      "Ġcontrols": 8347,
      "Ġpassword": 8348,
      "Ġintegration": 8349,
      "Ġstayed": 8350,
      "Ġdifficulties": 8351,
      "Ġecological": 8352,
      "Ġfinger": 8353,
      "Ġflexibility": 8354,
      "Ġvulnerable": 8355,
      "Ġworkshops": 8356,
      "Ġchicken": 8357,
      "ĊĠĠ": 8358,
      "Ġdirty": 8359,
      "iciency": 8360,
      "Ġreass": 8361,
      "imental": 8362,
      "ulum": 8363,
      "aped": 8364,
      "Ġunable": 8365,
      "Ġ{\"": 8366,
      "Ġgreatly": 8367,
      "Ġaircraft": 8368,
      "ĠRevolution": 8369,
      "Ġsle": 8370,
      "Ġstere": 8371,
      "utely": 8372,
      "ads": 8373,
      "ĠFred": 8374,
      "ĠWild": 8375,
      "Ġshipping": 8376,
      "ryption": 8377,
      "Ġshed": 8378,
      "Ġpeers": 8379,
      "riting": 8380,
      "Ġcrew": 8381,
      "Ġbrid": 8382,
      "ĠOnly": 8383,
      "Ġdisplayed": 8384,
      "Ġachievements": 8385,
      "ĠBritain": 8386,
      "bec": 8387,
      "cell": 8388,
      "iated": 8389,
      "Ġsour": 8390,
      "omin": 8391,
      "Ġchief": 8392,
      "Ġseed": 8393,
      "taining": 8394,
      "Ġhighlights": 8395,
      "Ġfinds": 8396,
      "Ġcontained": 8397,
      "198": 8398,
      "Ġcrime": 8399,
      "Ġillustrate": 8400,
      "Ġsorted": 8401,
      "Ġtransmission": 8402,
      "Ġinfections": 8403,
      "Ġlargely": 8404,
      "BC": 8405,
      "bul": 8406,
      "bias": 8407,
      "hair": 8408,
      "stone": 8409,
      "Ġbeat": 8410,
      "ada": 8411,
      "Ġclient": 8412,
      "Ġracial": 8413,
      "ften": 8414,
      "Ġconstantly": 8415,
      "Ġglobe": 8416,
      "31": 8417,
      "Back": 8418,
      "aud": 8419,
      "rot": 8420,
      "amily": 8421,
      "ĠCam": 8422,
      "anda": 8423,
      "Ġboys": 8424,
      "Ġdevast": 8425,
      "Ġprecise": 8426,
      "Ġcoastal": 8427,
      "ĠFoundation": 8428,
      "Ġnervous": 8429,
      "$$": 8430,
      "backs": 8431,
      "Ġdates": 8432,
      "inding": 8433,
      "aken": 8434,
      "Ġsuffering": 8435,
      "Ġintrigued": 8436,
      "Ġlemon": 8437,
      "Ġuncon": 8438,
      "Ġbutton": 8439,
      "ĠAsian": 8440,
      "Ġexpansion": 8441,
      "Ġorganizing": 8442,
      "Ġmarriage": 8443,
      "Ġdemonstrating": 8444,
      "Ġobserve": 8445,
      "Ġrelevance": 8446,
      "Ġwebsites": 8447,
      "Ġcryst": 8448,
      "Ġharvest": 8449,
      "rapeut": 8450,
      "Ġpractitioners": 8451,
      "box": 8452,
      "sub": 8453,
      "Ġmort": 8454,
      "Ġlists": 8455,
      "sts": 8456,
      "Ġstom": 8457,
      "ĠCy": 8458,
      "Ġcurve": 8459,
      "Ġkeeps": 8460,
      "Ġgreatest": 8461,
      "ĠInteg": 8462,
      "Ġlaid": 8463,
      "ĠCanadian": 8464,
      "ĠStrateg": 8465,
      "Ġbasket": 8466,
      "Gen": 8467,
      "Ġwelcome": 8468,
      "Ġpit": 8469,
      "Ġpapers": 8470,
      "Ġdirt": 8471,
      "roat": 8472,
      "Ġplenty": 8473,
      "Ġtraits": 8474,
      "Ġgravity": 8475,
      "Ġdefect": 8476,
      "Ġcaut": 8477,
      "Ġfactory": 8478,
      "Ġplane": 8479,
      "Ġprotective": 8480,
      "Ġinnovations": 8481,
      "Ġreflected": 8482,
      "Ġdemonstrates": 8483,
      "itizer": 8484,
      "Ġsector": 8485,
      "ĠTransforms": 8486,
      "Ġrenewable": 8487,
      "Ġshouted": 8488,
      "Ġcoc": 8489,
      "ĠRome": 8490,
      "ĠLand": 8491,
      "Ġpeoples": 8492,
      "Ġadvances": 8493,
      "Ġphysically": 8494,
      "Ġcaptured": 8495,
      "Ġsurroundings": 8496,
      "Ġbutterfly": 8497,
      "OW": 8498,
      "war": 8499,
      "Ġsoph": 8500,
      "ctic": 8501,
      "Ġenrich": 8502,
      "ĠGold": 8503,
      "Ġacting": 8504,
      "Ġpresents": 8505,
      "Ġelectron": 8506,
      "Ġ1999": 8507,
      "Ġwriter": 8508,
      "Ġfarming": 8509,
      "Ġmountains": 8510,
      "Ġassigned": 8511,
      "Ġphenomenon": 8512,
      "Ġancestors": 8513,
      "ĠFrancis": 8514,
      "Per": 8515,
      "Rec": 8516,
      "Soup": 8517,
      "ĠType": 8518,
      "ĠIII": 8519,
      "Ġneu": 8520,
      "Ġtheme": 8521,
      "ĠProcess": 8522,
      "ĠSpot": 8523,
      "Ġcontributes": 8524,
      "Ġmeasuring": 8525,
      "Ġlabels": 8526,
      "ĠTechniques": 8527,
      "ĠCatholic": 8528,
      "Ġsizes": 8529,
      "ĠHome": 8530,
      "ĠBi": 8531,
      "vely": 8532,
      "Ġcombine": 8533,
      "attered": 8534,
      "Ġpsychology": 8535,
      "Ġprospect": 8536,
      "Ġshowcasing": 8537,
      "Ġbrilliant": 8538,
      "bled": 8539,
      "yroid": 8540,
      "ota": 8541,
      "Ġritual": 8542,
      "Ġadds": 8543,
      "Ġperceived": 8544,
      "Ġagents": 8545,
      "Ġblog": 8546,
      "ĠVer": 8547,
      "Ġcounty": 8548,
      "nowned": 8549,
      "Ġcomprehension": 8550,
      "Ġleaned": 8551,
      "frequency": 8552,
      "ki": 8553,
      "Ġfox": 8554,
      "Ġtoler": 8555,
      "Ġeco": 8556,
      "ĠTH": 8557,
      "ĠST": 8558,
      "Ġconqu": 8559,
      "ading": 8560,
      "abs": 8561,
      "Ġshook": 8562,
      "avy": 8563,
      "centage": 8564,
      "Ġeleph": 8565,
      "Ġzone": 8566,
      "month": 8567,
      "Ġaccurately": 8568,
      "AA": 8569,
      "city": 8570,
      "lar": 8571,
      "wind": 8572,
      "itals": 8573,
      "Ġms": 8574,
      "Ġnorthern": 8575,
      "Ġ\"\"": 8576,
      "ĠBack": 8577,
      "Ġrid": 8578,
      "ĠRound": 8579,
      "iqued": 8580,
      "Ġcurric": 8581,
      "Ġcharacterized": 8582,
      "ĠTommy": 8583,
      "Ġadmitted": 8584,
      "Ġhabitats": 8585,
      "Ġgear": 8586,
      "ĠLook": 8587,
      "Ġcontamin": 8588,
      "Ġhoped": 8589,
      "Ġ1990": 8590,
      "Ġsubstances": 8591,
      "ammation": 8592,
      "Ġtapest": 8593,
      "Ġpursuing": 8594,
      "Ġobscure": 8595,
      "cel": 8596,
      "yard": 8597,
      "cture": 8598,
      "ivated": 8599,
      "ĠEar": 8600,
      "ĠLabor": 8601,
      "Ġaccel": 8602,
      "ĠKind": 8603,
      "Ġpossibly": 8604,
      "Ġtreasure": 8605,
      "Ġdriven": 8606,
      "Ġmusicians": 8607,
      "Ġpsychological": 8608,
      "Ġseasoned": 8609,
      "Ġpreferred": 8610,
      "Pr": 8611,
      "iov": 8612,
      "ĠBre": 8613,
      "Ġabund": 8614,
      "ĠLoad": 8615,
      "ressing": 8616,
      "Ġtraum": 8617,
      "Ġproviders": 8618,
      "Ġfriendships": 8619,
      "Ġdelay": 8620,
      "Ġclassical": 8621,
      "Ġreceiving": 8622,
      "Ġpayment": 8623,
      "Ġthrive": 8624,
      "Ġfluid": 8625,
      "Ġmonthly": 8626,
      "ĠMichael": 8627,
      "yal": 8628,
      "Ã¶": 8629,
      "ĠNose": 8630,
      "Ġpartner": 8631,
      "ube": 8632,
      "ĊĠĠĠĠĠĠĠĠĠĠĠĠĠĠ": 8633,
      "Ġpossibility": 8634,
      "Ġconfused": 8635,
      "Ġembarked": 8636,
      "Ġtrusted": 8637,
      "imedelta": 8638,
      "ĠApplic": 8639,
      "Ġsacred": 8640,
      "ĠHarmonyville": 8641,
      "Ġmanifest": 8642,
      "]):": 8643,
      "cus": 8644,
      "Ġpock": 8645,
      "Ġforum": 8646,
      "ĠMD": 8647,
      "ĠPM": 8648,
      "ĠBrown": 8649,
      "ĠEarly": 8650,
      "Ġcompelling": 8651,
      "autions": 8652,
      "Ġwindows": 8653,
      "ĠCommit": 8654,
      "Ġmysteries": 8655,
      "Ġstriking": 8656,
      "Ġconcentration": 8657,
      "Ġinterpretation": 8658,
      "Ġadequate": 8659,
      "'):": 8660,
      "Le": 8661,
      "Ġwished": 8662,
      "Ġpiqued": 8663,
      "ulpt": 8664,
      "anting": 8665,
      "Ġabstract": 8666,
      "ieval": 8667,
      "ĠJo": 8668,
      "Ġsculpt": 8669,
      "Ġpreference": 8670,
      "Ġbuck": 8671,
      "Ġsubtle": 8672,
      "Ġcriticism": 8673,
      "Ġcombinations": 8674,
      "Ġethic": 8675,
      "Ġprinciple": 8676,
      "Ġuniversal": 8677,
      "Ġhorizon": 8678,
      "ĠFlorida": 8679,
      "Ġunnecess": 8680,
      "Ins": 8681,
      "sen": 8682,
      "Ġtag": 8683,
      "eness": 8684,
      "ashes": 8685,
      "Ġshampoo": 8686,
      "ĠNever": 8687,
      "Ġmapping": 8688,
      "ĠChall": 8689,
      "Ġbug": 8690,
      "Ġawa": 8691,
      "Ġguarant": 8692,
      "Ġsmoke": 8693,
      "Ġsettled": 8694,
      "Ġdanger": 8695,
      "Ġgraphic": 8696,
      "Ġcoordin": 8697,
      "Ġathletes": 8698,
      "Ab": 8699,
      "Eng": 8700,
      "Other": 8701,
      "RL": 8702,
      "ST": 8703,
      "ii": 8704,
      "safety": 8705,
      "Ġbike": 8706,
      "ĠEvalu": 8707,
      "ĠDise": 8708,
      "ĠIns": 8709,
      "Ġtrick": 8710,
      "Ġcounts": 8711,
      "ierarch": 8712,
      "ĠToilet": 8713,
      "Ġbiod": 8714,
      "ĠDisplays": 8715,
      "Ġdivine": 8716,
      "ĠHandling": 8717,
      "ĠBeautiful": 8718,
      "}\\": 8719,
      "ĠÃ": 8720,
      "eries": 8721,
      "ato": 8722,
      "ounce": 8723,
      "storm": 8724,
      "ampl": 8725,
      "opy": 8726,
      "Ġneuro": 8727,
      "Ġbrushing": 8728,
      "Ġtreasures": 8729,
      "Ġintegrated": 8730,
      "Ġsoftly": 8731,
      "Ġimmense": 8732,
      "ĠIntrigued": 8733,
      "ĠGlobal": 8734,
      "Ġsatisfaction": 8735,
      "Ġcongestion": 8736,
      "ĠVietnam": 8737,
      "Hand": 8738,
      "nose": 8739,
      "Ġaqu": 8740,
      "itely": 8741,
      "ascular": 8742,
      "Ġharness": 8743,
      "istur": 8744,
      "ĠPet": 8745,
      "Ġneck": 8746,
      "ĠEqu": 8747,
      "ĠFederal": 8748,
      "Ġkeys": 8749,
      "Ġsolace": 8750,
      "Ġreduces": 8751,
      "Ġpresentation": 8752,
      "Ġslide": 8753,
      "Ġinvesting": 8754,
      "Ġnecessit": 8755,
      "\"],": 8756,
      "Ġtraveling": 8757,
      "Ġsuffered": 8758,
      "Ġstrike": 8759,
      "ĠMuslim": 8760,
      "*:": 8761,
      "Did": 8762,
      "hem": 8763,
      "Ġwra": 8764,
      "Ġborder": 8765,
      "Ġborders": 8766,
      "ĠMolly": 8767,
      "ĠHol": 8768,
      "ĠEst": 8769,
      "ĠInvest": 8770,
      "avail": 8771,
      "Ġprints": 8772,
      "ĠProduct": 8773,
      "Ġequival": 8774,
      "Ġfilms": 8775,
      "Ġdocumentation": 8776,
      "Ġfossil": 8777,
      "zes": 8778,
      "Ġtables": 8779,
      "Ġlatter": 8780,
      "start": 8781,
      "ĠEye": 8782,
      "ĠLanguage": 8783,
      "Ġuncomfort": 8784,
      "ailed": 8785,
      "Ġstrings": 8786,
      "ĠĊĊ": 8787,
      "Ġclever": 8788,
      "Ġsuggesting": 8789,
      "Ġappreciating": 8790,
      "Ġsupposed": 8791,
      "Ġexpanded": 8792,
      "Ġweakness": 8793,
      "Ġdecrease": 8794,
      "ĠISBN": 8795,
      "Most": 8796,
      "aver": 8797,
      "range": 8798,
      "Ġtomat": 8799,
      "Ġnurs": 8800,
      "ĠCrit": 8801,
      "ĠEventually": 8802,
      "Ġapple": 8803,
      "Ġevolving": 8804,
      "Ġcalculations": 8805,
      "Ġwaited": 8806,
      "Ġthriving": 8807,
      "marks": 8808,
      "ĠChristianity": 8809,
      "ĠRichard": 8810,
      "!âĢĿ": 8811,
      "VID": 8812,
      "ih": 8813,
      "Ġille": 8814,
      "Ġcups": 8815,
      "Ġproving": 8816,
      "ilem": 8817,
      "asters": 8818,
      "Ġtrigg": 8819,
      "Ġcomparing": 8820,
      "Ġrepair": 8821,
      "Ġsafer": 8822,
      "Ġcomputing": 8823,
      "Ġtargeted": 8824,
      "haust": 8825,
      "rapeutic": 8826,
      "flow": 8827,
      "mind": 8828,
      "ugg": 8829,
      "Ġmask": 8830,
      "struct": 8831,
      "ouring": 8832,
      "Ġ35": 8833,
      "Ġformula": 8834,
      "Ġdepends": 8835,
      "portation": 8836,
      "Ġsupportive": 8837,
      "Ġhistoric": 8838,
      "Ġfosters": 8839,
      "Ġstatistics": 8840,
      "ĠIslamic": 8841,
      "Ġtapestry": 8842,
      "Ġbiodiversity": 8843,
      "jud": 8844,
      "press": 8845,
      "Ġrom": 8846,
      "Ġpestic": 8847,
      "Ġrenowned": 8848,
      "ĠMove": 8849,
      "usions": 8850,
      "indu": 8851,
      "ruption": 8852,
      "Ġentreprene": 8853,
      "bris": 8854,
      "Ġrising": 8855,
      "Ġobjectives": 8856,
      "Ġhesitated": 8857,
      "born": 8858,
      "Ġcrop": 8859,
      "Ġnine": 8860,
      "Ġgif": 8861,
      "Ġstuck": 8862,
      "Ġprem": 8863,
      "Ġprinting": 8864,
      "Ġgenre": 8865,
      "Ġgranted": 8866,
      "ĠCancer": 8867,
      "ambda": 8868,
      "Ġepis": 8869,
      "hearted": 8870,
      "Ġuncertainty": 8871,
      "Ġstomach": 8872,
      ")**": 8873,
      "05": 8874,
      "Ġyog": 8875,
      "odes": 8876,
      "ĠHair": 8877,
      "ĠNor": 8878,
      "ĠJose": 8879,
      "Ġunlike": 8880,
      "Ġtransforming": 8881,
      "iki": 8882,
      "Ġteachings": 8883,
      "Ġnested": 8884,
      "Ġdimensions": 8885,
      "Ġobtained": 8886,
      "Ġinsects": 8887,
      "UM": 8888,
      "imm": 8889,
      "idelines": 8890,
      "ĠSand": 8891,
      "ĠHall": 8892,
      "Ġpeak": 8893,
      "Ġsyndrome": 8894,
      "ĠStart": 8895,
      "Ġfolks": 8896,
      "Ġfinish": 8897,
      "Ġsuggestions": 8898,
      "Ġposted": 8899,
      "ĠPeace": 8900,
      "Ġexpanding": 8901,
      "Ġbranches": 8902,
      "Ġexhibit": 8903,
      "Ġaxis": 8904,
      "oir": 8905,
      "Ġfrog": 8906,
      "ĠMad": 8907,
      "Ġupcoming": 8908,
      "Ġsail": 8909,
      "Ġquir": 8910,
      "Ġcompr": 8911,
      "Ġsubs": 8912,
      "exist": 8913,
      "theless": 8914,
      "Ġharder": 8915,
      "ĠPlay": 8916,
      "Ġfalling": 8917,
      "Ġcelebrated": 8918,
      "ĠPrevent": 8919,
      "Ġimagined": 8920,
      "Ġbottle": 8921,
      "Ġmistake": 8922,
      "Ġshifts": 8923,
      "Ġcherished": 8924,
      "Ġfav": 8925,
      "otion": 8926,
      "romos": 8927,
      "Ġchat": 8928,
      "Ġspr": 8929,
      "Ġkilled": 8930,
      "Ġremoving": 8931,
      "Ġedges": 8932,
      "Ġdepart": 8933,
      "blems": 8934,
      "Ġequipped": 8935,
      "Ġbiases": 8936,
      "ĠAmelia": 8937,
      "Ġgeomet": 8938,
      "Ġdoubt": 8939,
      "Fl": 8940,
      "Ġtelling": 8941,
      "itz": 8942,
      "Ġenlight": 8943,
      "ĠRom": 8944,
      "Ġprecip": 8945,
      "Ġmainly": 8946,
      "Ġprofit": 8947,
      "Ġsilver": 8948,
      "Ġoppos": 8949,
      "Ġreviews": 8950,
      "Ġinstalled": 8951,
      "Ġadministration": 8952,
      "Ġlaunched": 8953,
      "Wash": 8954,
      "lib": 8955,
      "oons": 8956,
      "Ġsouthern": 8957,
      "Ġwestern": 8958,
      "Ġhill": 8959,
      "Ġlob": 8960,
      "etts": 8961,
      "Ġorbit": 8962,
      "ĠPolic": 8963,
      "achus": 8964,
      "Ġprinted": 8965,
      "ĠKh": 8966,
      "Ġmedication": 8967,
      "inson": 8968,
      "Ġequations": 8969,
      "Ġwarmth": 8970,
      "Ġweekly": 8971,
      "Ġcyber": 8972,
      "Ġbowl": 8973,
      "Activity": 8974,
      "Ġenemy": 8975,
      "76": 8976,
      "dem": 8977,
      "public": 8978,
      "Ġbes": 8979,
      "Ġblow": 8980,
      "seen": 8981,
      "Ġstable": 8982,
      "tery": 8983,
      "ĠBook": 8984,
      "Ġshake": 8985,
      "ĠNatural": 8986,
      "eping": 8987,
      "Ġmanner": 8988,
      "Ġdesk": 8989,
      "Ġinterpre": 8990,
      "Ġattitudes": 8991,
      "ucose": 8992,
      "Ġcultivate": 8993,
      "Ġsinging": 8994,
      "ĠColumb": 8995,
      "ĠPerhaps": 8996,
      "ĠAbout": 8997,
      "Ġjuice": 8998,
      "ĠPractice": 8999,
      "Ġdestroyed": 9000,
      "Ġling": 9001,
      "irth": 9002,
      "Ġvoc": 9003,
      "ĠMars": 9004,
      "Ġshower": 9005,
      "ĠGre": 9006,
      "Ġswing": 9007,
      "Ġdefense": 9008,
      "oven": 9009,
      "Ġ500": 9010,
      "Ġexisted": 9011,
      "Ġdescribing": 9012,
      "Ġpaying": 9013,
      "Ġcookies": 9014,
      "ixture": 9015,
      "Ġtackle": 9016,
      "Ġweapons": 9017,
      "Ġmemorable": 9018,
      "ĠVictor": 9019,
      "Ġuncomfortable": 9020,
      "but": 9021,
      "gent": 9022,
      "Ġ_": 9023,
      "Ġpin": 9024,
      "Ġstir": 9025,
      "ĠSil": 9026,
      "Ġproof": 9027,
      "ĠDoes": 9028,
      "acts": 9029,
      "Ġresponding": 9030,
      "Ġproductivity": 9031,
      "ployment": 9032,
      "covery": 9033,
      "handwashing": 9034,
      "temporary": 9035,
      "Ġmechanism": 9036,
      "Ġfears": 9037,
      "ĠParis": 9038,
      "Ġadvocating": 9039,
      "Ġburning": 9040,
      "ĠAcademy": 9041,
      "math": 9042,
      "zil": 9043,
      "educ": 9044,
      "Ġmes": 9045,
      "otes": 9046,
      "heric": 9047,
      "Ġadhere": 9048,
      "rospect": 9049,
      "ĠSea": 9050,
      "Ġimmun": 9051,
      "Ġdifficulty": 9052,
      "Expl": 9053,
      "Ġimagination": 9054,
      "Ġmagnetic": 9055,
      "iatric": 9056,
      "Ġaccidentally": 9057,
      "Ġscrolling": 9058,
      "Ġmand": 9059,
      "elve": 9060,
      "osion": 9061,
      "ĠFree": 9062,
      "ĠWas": 9063,
      "Ġpool": 9064,
      "egu": 9065,
      "Ġsigned": 9066,
      "Ġextent": 9067,
      "ĠChev": 9068,
      "ĠReview": 9069,
      "ĠBeing": 9070,
      "Ġtexture": 9071,
      "Ġroads": 9072,
      "ĠCompany": 9073,
      "Ġterritory": 9074,
      "ĠMiG": 9075,
      "bel": 9076,
      "Ġlively": 9077,
      "ĠTaylor": 9078,
      "Ġconference": 9079,
      "illa": 9080,
      "ĠForce": 9081,
      "commun": 9082,
      "Ġcritic": 9083,
      "Ġgratitude": 9084,
      "Ġlawy": 9085,
      "Ġvariations": 9086,
      "Ġtransformations": 9087,
      "Ġteamwork": 9088,
      "Ġmindfulness": 9089,
      "Ġbeneficial": 9090,
      "Ġnodes": 9091,
      "ĠConstitution": 9092,
      "Ġconcrete": 9093,
      "ĠMicro": 9094,
      "Ġaspiring": 9095,
      "Sc": 9096,
      "Ġrevenue": 9097,
      "Ġveter": 9098,
      "ĠDental": 9099,
      "ustain": 9100,
      "ĠNumber": 9101,
      "Ġmanager": 9102,
      "ĠItaly": 9103,
      "Ġbalancing": 9104,
      "Ġguided": 9105,
      "Ġtempor": 9106,
      "Ġquestioning": 9107,
      "Ġdivision": 9108,
      "Ġthrilling": 9109,
      "Ġcrafting": 9110,
      "Mommy": 9111,
      "ĠOffice": 9112,
      "ioxide": 9113,
      "Ġlinguistic": 9114,
      "ĠBeautifulSoup": 9115,
      "Ġbaking": 9116,
      "terior": 9117,
      "Ġcomplications": 9118,
      "intage": 9119,
      "Ġlie": 9120,
      "Ġblend": 9121,
      "Ġinfo": 9122,
      "Ġinflammation": 9123,
      "artha": 9124,
      "Ġposts": 9125,
      "ĠTravel": 9126,
      "Ġcelebrating": 9127,
      "Ġamazed": 9128,
      "Ġthreatened": 9129,
      "Ġexchanged": 9130,
      "OUR": 9131,
      "According": 9132,
      "Ġtomorrow": 9133,
      "Ġmarginalized": 9134,
      "made": 9135,
      "ĠCat": 9136,
      "ĠLog": 9137,
      "Ġincom": 9138,
      "bert": 9139,
      "Ġobvious": 9140,
      "Ġprecautions": 9141,
      "Ġmarveled": 9142,
      "Ġparallel": 9143,
      "Tra": 9144,
      "hi": 9145,
      "erts": 9146,
      "Ġpink": 9147,
      "Ġhoney": 9148,
      "ĠSat": 9149,
      "ĠEastern": 9150,
      "ĠWord": 9151,
      "Ġshares": 9152,
      "Ġintensity": 9153,
      "Ġperception": 9154,
      "comed": 9155,
[...]
